{
  "version": "1.0",
  "truncation": null,
  "padding": null,
  "added_tokens": [
    {
      "id": 0,
      "content": "<pad>",
      "single_word": false,
      "lstrip": false,
      "rstrip": false,
      "normalized": false,
      "special": true
    },
    {
      "id": 1,
      "content": "<unk>",
      "single_word": false,
      "lstrip": false,
      "rstrip": false,
      "normalized": false,
      "special": true
    },
    {
      "id": 2,
      "content": "<bos>",
      "single_word": false,
      "lstrip": false,
      "rstrip": false,
      "normalized": false,
      "special": true
    },
    {
      "id": 3,
      "content": "<eos>",
      "single_word": false,
      "lstrip": false,
      "rstrip": false,
      "normalized": false,
      "special": true
    },
    {
      "id": 4,
      "content": "<mask>",
      "single_word": false,
      "lstrip": false,
      "rstrip": false,
      "normalized": false,
      "special": true
    }
  ],
  "normalizer": null,
  "pre_tokenizer": {
    "type": "Whitespace"
  },
  "post_processor": null,
  "decoder": {
    "type": "WordPiece",
    "prefix": "##",
    "cleanup": true
  },
  "model": {
    "type": "BPE",
    "dropout": null,
    "unk_token": "<unk>",
    "continuing_subword_prefix": "##",
    "end_of_word_suffix": null,
    "fuse_unk": false,
    "byte_fallback": false,
    "ignore_merges": false,
    "vocab": {
      "<pad>": 0,
      "<unk>": 1,
      "<bos>": 2,
      "<eos>": 3,
      "<mask>": 4,
      "ء": 5,
      "ؤ": 6,
      "ئ": 7,
      "ا": 8,
      "ب": 9,
      "ت": 10,
      "ث": 11,
      "ج": 12,
      "ح": 13,
      "خ": 14,
      "د": 15,
      "ذ": 16,
      "ر": 17,
      "ز": 18,
      "س": 19,
      "ش": 20,
      "ص": 21,
      "ض": 22,
      "ط": 23,
      "ظ": 24,
      "ع": 25,
      "غ": 26,
      "ف": 27,
      "ق": 28,
      "ك": 29,
      "ل": 30,
      "م": 31,
      "ن": 32,
      "ه": 33,
      "و": 34,
      "ي": 35,
      "ٮ": 36,
      "ٯ": 37,
      "ٲ": 38,
      "ٳ": 39,
      "ٴ": 40,
      "ٵ": 41,
      "ٶ": 42,
      "ٷ": 43,
      "ٸ": 44,
      "ٹ": 45,
      "ٺ": 46,
      "ٻ": 47,
      "ټ": 48,
      "ٽ": 49,
      "پ": 50,
      "ٿ": 51,
      "ڀ": 52,
      "ځ": 53,
      "ڂ": 54,
      "ڃ": 55,
      "ڄ": 56,
      "څ": 57,
      "چ": 58,
      "ڇ": 59,
      "ڈ": 60,
      "ډ": 61,
      "ڊ": 62,
      "ڌ": 63,
      "ڍ": 64,
      "ڎ": 65,
      "ڏ": 66,
      "ڑ": 67,
      "ڒ": 68,
      "ړ": 69,
      "ڔ": 70,
      "ڕ": 71,
      "ږ": 72,
      "ژ": 73,
      "ڙ": 74,
      "ښ": 75,
      "ڛ": 76,
      "ڜ": 77,
      "ڝ": 78,
      "ڞ": 79,
      "ڟ": 80,
      "ڠ": 81,
      "ڡ": 82,
      "ڢ": 83,
      "ڣ": 84,
      "ڤ": 85,
      "ڥ": 86,
      "ڦ": 87,
      "ڧ": 88,
      "ڨ": 89,
      "ک": 90,
      "ڪ": 91,
      "ګ": 92,
      "ڬ": 93,
      "ڭ": 94,
      "ڮ": 95,
      "گ": 96,
      "ڰ": 97,
      "ڱ": 98,
      "ڲ": 99,
      "ڳ": 100,
      "ڴ": 101,
      "ڵ": 102,
      "ڶ": 103,
      "ڷ": 104,
      "ڸ": 105,
      "ڹ": 106,
      "ں": 107,
      "ڻ": 108,
      "ڼ": 109,
      "ڽ": 110,
      "ھ": 111,
      "ۀ": 112,
      "ہ": 113,
      "ۂ": 114,
      "ۃ": 115,
      "ۄ": 116,
      "ۅ": 117,
      "ۆ": 118,
      "ۇ": 119,
      "ۈ": 120,
      "ۉ": 121,
      "ۋ": 122,
      "ی": 123,
      "ۍ": 124,
      "ێ": 125,
      "ۏ": 126,
      "ې": 127,
      "ۑ": 128,
      "ے": 129,
      "ۓ": 130,
      "ە": 131,
      "ۯ": 132,
      "ۿ": 133,
      "ݗ": 134,
      "ݘ": 135,
      "ݛ": 136,
      "ݠ": 137,
      "ݡ": 138,
      "ݣ": 139,
      "ݦ": 140,
      "ݨ": 141,
      "ݪ": 142,
      "ݳ": 143,
      "ݸ": 144,
      "ݾ": 145,
      "ࢥ": 146,
      "ࢦ": 147,
      "ࢪ": 148,
      "ﭐ": 149,
      "ﭑ": 150,
      "ﭓ": 151,
      "ﭘ": 152,
      "ﭙ": 153,
      "ﭠ": 154,
      "ﭢ": 155,
      "ﭬ": 156,
      "ﭭ": 157,
      "ﭰ": 158,
      "ﭴ": 159,
      "ﭸ": 160,
      "ﭺ": 161,
      "ﭼ": 162,
      "ﭽ": 163,
      "ﭾ": 164,
      "ﮂ": 165,
      "ﮋ": 166,
      "ﮏ": 167,
      "ﮐ": 168,
      "ﮑ": 169,
      "ﮔ": 170,
      "ﮕ": 171,
      "ﮗ": 172,
      "ﮙ": 173,
      "ﮝ": 174,
      "ﮢ": 175,
      "ﮥ": 176,
      "ﮧ": 177,
      "ﮨ": 178,
      "ﮩ": 179,
      "ﮪ": 180,
      "ﮫ": 181,
      "ﮬ": 182,
      "ﮭ": 183,
      "ﮯ": 184,
      "ﮱ": 185,
      "ﯗ": 186,
      "ﯙ": 187,
      "ﯚ": 188,
      "ﯛ": 189,
      "ﯜ": 190,
      "ﯞ": 191,
      "ﯟ": 192,
      "ﯠ": 193,
      "ﯡ": 194,
      "ﯢ": 195,
      "ﯧ": 196,
      "ﯨ": 197,
      "ﯼ": 198,
      "ﯽ": 199,
      "ﯾ": 200,
      "ﯿ": 201,
      "ﰲ": 202,
      "ﱂ": 203,
      "ﱃ": 204,
      "ﱘ": 205,
      "ﱙ": 206,
      "ﱠ": 207,
      "ﱢ": 208,
      "ﱦ": 209,
      "ﱪ": 210,
      "ﱯ": 211,
      "ﲔ": 212,
      "ﲡ": 213,
      "ﲢ": 214,
      "ﲨ": 215,
      "ﲪ": 216,
      "ﳊ": 217,
      "ﳋ": 218,
      "ﳌ": 219,
      "ﳏ": 220,
      "ﳑ": 221,
      "ﳔ": 222,
      "ﳕ": 223,
      "ﳝ": 224,
      "ﳴ": 225,
      "ﷲ": 226,
      "ﷴ": 227,
      "ﷶ": 228,
      "ﷹ": 229,
      "ﷺ": 230,
      "ﷻ": 231,
      "ﹷ": 232,
      "ﹺ": 233,
      "ﹻ": 234,
      "ﹾ": 235,
      "ﺀ": 236,
      "ﺁ": 237,
      "ﺂ": 238,
      "ﺃ": 239,
      "ﺄ": 240,
      "ﺅ": 241,
      "ﺆ": 242,
      "ﺇ": 243,
      "ﺈ": 244,
      "ﺉ": 245,
      "ﺊ": 246,
      "ﺋ": 247,
      "ﺌ": 248,
      "ﺍ": 249,
      "ﺎ": 250,
      "ﺏ": 251,
      "ﺐ": 252,
      "ﺑ": 253,
      "ﺒ": 254,
      "ﺓ": 255,
      "ﺔ": 256,
      "ﺕ": 257,
      "ﺖ": 258,
      "ﺗ": 259,
      "ﺘ": 260,
      "ﺙ": 261,
      "ﺚ": 262,
      "ﺛ": 263,
      "ﺜ": 264,
      "ﺝ": 265,
      "ﺞ": 266,
      "ﺟ": 267,
      "ﺠ": 268,
      "ﺡ": 269,
      "ﺢ": 270,
      "ﺣ": 271,
      "ﺤ": 272,
      "ﺥ": 273,
      "ﺦ": 274,
      "ﺧ": 275,
      "ﺨ": 276,
      "ﺩ": 277,
      "ﺪ": 278,
      "ﺫ": 279,
      "ﺬ": 280,
      "ﺭ": 281,
      "ﺮ": 282,
      "ﺯ": 283,
      "ﺰ": 284,
      "ﺱ": 285,
      "ﺲ": 286,
      "ﺳ": 287,
      "ﺴ": 288,
      "ﺵ": 289,
      "ﺶ": 290,
      "ﺷ": 291,
      "ﺸ": 292,
      "ﺹ": 293,
      "ﺺ": 294,
      "ﺻ": 295,
      "ﺼ": 296,
      "ﺽ": 297,
      "ﺾ": 298,
      "ﺿ": 299,
      "ﻀ": 300,
      "ﻁ": 301,
      "ﻂ": 302,
      "ﻃ": 303,
      "ﻄ": 304,
      "ﻅ": 305,
      "ﻆ": 306,
      "ﻇ": 307,
      "ﻈ": 308,
      "ﻉ": 309,
      "ﻊ": 310,
      "ﻋ": 311,
      "ﻌ": 312,
      "ﻍ": 313,
      "ﻎ": 314,
      "ﻏ": 315,
      "ﻐ": 316,
      "ﻑ": 317,
      "ﻒ": 318,
      "ﻓ": 319,
      "ﻔ": 320,
      "ﻕ": 321,
      "ﻖ": 322,
      "ﻗ": 323,
      "ﻘ": 324,
      "ﻙ": 325,
      "ﻚ": 326,
      "ﻛ": 327,
      "ﻜ": 328,
      "ﻝ": 329,
      "ﻞ": 330,
      "ﻟ": 331,
      "ﻠ": 332,
      "ﻡ": 333,
      "ﻢ": 334,
      "ﻣ": 335,
      "ﻤ": 336,
      "ﻥ": 337,
      "ﻦ": 338,
      "ﻧ": 339,
      "ﻨ": 340,
      "ﻩ": 341,
      "ﻪ": 342,
      "ﻫ": 343,
      "ﻬ": 344,
      "ﻭ": 345,
      "ﻮ": 346,
      "ﻯ": 347,
      "ﻰ": 348,
      "ﻱ": 349,
      "ﻲ": 350,
      "ﻳ": 351,
      "ﻴ": 352,
      "ﻵ": 353,
      "ﻶ": 354,
      "ﻷ": 355,
      "ﻸ": 356,
      "ﻹ": 357,
      "ﻺ": 358,
      "ﻻ": 359,
      "ﻼ": 360,
      "##و": 361,
      "##ر": 362,
      "##ي": 363,
      "##ه": 364,
      "##ا": 365,
      "##ل": 366,
      "##ك": 367,
      "##ح": 368,
      "##ج": 369,
      "##ز": 370,
      "##ش": 371,
      "##خ": 372,
      "##ص": 373,
      "##ت": 374,
      "##ق": 375,
      "##د": 376,
      "##م": 377,
      "##ض": 378,
      "##ط": 379,
      "##ب": 380,
      "##ن": 381,
      "##ف": 382,
      "##غ": 383,
      "##س": 384,
      "##ع": 385,
      "##ذ": 386,
      "##ظ": 387,
      "##گ": 388,
      "##ے": 389,
      "##ھ": 390,
      "##ث": 391,
      "##ئ": 392,
      "##ی": 393,
      "##ک": 394,
      "##ؤ": 395,
      "##ء": 396,
      "##ﻌ": 397,
      "##ﺒ": 398,
      "##ﺮ": 399,
      "##ﺓ": 400,
      "##ە": 401,
      "##ﺳ": 402,
      "##ﻠ": 403,
      "##ﻤ": 404,
      "##ﺖ": 405,
      "##ٹ": 406,
      "##پ": 407,
      "##ڤ": 408,
      "##چ": 409,
      "##ﻟ": 410,
      "##ﻰ": 411,
      "##ہ": 412,
      "##ڨ": 413,
      "##ﮧ": 414,
      "##ﻧ": 415,
      "##ﺻ": 416,
      "##ﺎ": 417,
      "##ﻘ": 418,
      "##ﻲ": 419,
      "##ﻮ": 420,
      "##ﺿ": 421,
      "##ێ": 422,
      "##ﻷ": 423,
      "##ﻣ": 424,
      "##ﯾ": 425,
      "##ﺔ": 426,
      "##ڭ": 427,
      "##ﺴ": 428,
      "##ﻢ": 429,
      "##ڜ": 430,
      "##ﻻ": 431,
      "##ڍ": 432,
      "##ﻨ": 433,
      "##ﻬ": 434,
      "##ﻳ": 435,
      "##ﻴ": 436,
      "##ﻉ": 437,
      "##ۑ": 438,
      "##ﺏ": 439,
      "##ﻗ": 440,
      "##ﺗ": 441,
      "##ﺣ": 442,
      "##ﻔ": 443,
      "##ﺟ": 444,
      "##ﺌ": 445,
      "##ﻚ": 446,
      "##ڡ": 447,
      "##ݣ": 448,
      "##ۈ": 449,
      "##ۋ": 450,
      "##ࢪ": 451,
      "##ڪ": 452,
      "##ﺪ": 453,
      "##ۆ": 454,
      "##ﷴ": 455,
      "##ﷺ": 456,
      "##ڑ": 457,
      "##ژ": 458,
      "##ﮯ": 459,
      "##ڕ": 460,
      "##ﻛ": 461,
      "##ﺘ": 462,
      "##ﺸ": 463,
      "##ﻒ": 464,
      "##ﺤ": 465,
      "##ﻖ": 466,
      "##ﻪ": 467,
      "##ۃ": 468,
      "##ﺀ": 469,
      "##ﻋ": 470,
      "##ڵ": 471,
      "##ﻜ": 472,
      "##ﺐ": 473,
      "##ﷻ": 474,
      "##ﺛ": 475,
      "##ں": 476,
      "##ﻀ": 477,
      "##ﺠ": 478,
      "##ٲ": 479,
      "##ۂ": 480,
      "##ﺋ": 481,
      "##ﭑ": 482,
      "##ګ": 483,
      "##ڒ": 484,
      "##ݘ": 485,
      "##ۇ": 486,
      "##ﺍ": 487,
      "##ﻦ": 488,
      "##ﺰ": 489,
      "##ﺧ": 490,
      "##ﻥ": 491,
      "##ﺩ": 492,
      "##ﺕ": 493,
      "##ﻞ": 494,
      "##ﻫ": 495,
      "##ړ": 496,
      "##ڹ": 497,
      "##ﻵ": 498,
      "##ﺑ": 499,
      "##ﺼ": 500,
      "##ﻐ": 501,
      "##ﻊ": 502,
      "##ټ": 503,
      "##ﺭ": 504,
      "##ې": 505,
      "##ﻝ": 506,
      "##ﻼ": 507,
      "##ڈ": 508,
      "##ﭴ": 509,
      "##ٸ": 510,
      "##ﺯ": 511,
      "##ڻ": 512,
      "##ﷲ": 513,
      "##ﻭ": 514,
      "##ﺷ": 515,
      "##ﻩ": 516,
      "##ﻹ": 517,
      "##ۿ": 518,
      "##ﻁ": 519,
      "##ﺡ": 520,
      "##ٮ": 521,
      "##ﺜ": 522,
      "##ﺲ": 523,
      "##ڶ": 524,
      "##ﺦ": 525,
      "##ﮑ": 526,
      "##ﯼ": 527,
      "##ﻑ": 528,
      "##ڏ": 529,
      "##ﺁ": 530,
      "##ﺃ": 531,
      "##ﭢ": 532,
      "##ﻈ": 533,
      "##ﺱ": 534,
      "##ﻡ": 535,
      "##ﹷ": 536,
      "##ﹻ": 537,
      "##ﻃ": 538,
      "##ݛ": 539,
      "##ښ": 540,
      "##ٯ": 541,
      "##ﻄ": 542,
      "##ڛ": 543,
      "##ﻕ": 544,
      "##ﺢ": 545,
      "##ۍ": 546,
      "##ݪ": 547,
      "##ڷ": 548,
      "##ﻓ": 549,
      "##ځ": 550,
      "##ﯜ": 551,
      "##ﺨ": 552,
      "##ﺥ": 553,
      "##ﺽ": 554,
      "##ﻙ": 555,
      "##ﺬ": 556,
      "##ﻱ": 557,
      "##ﭰ": 558,
      "##ﮪ": 559,
      "##ﺂ": 560,
      "##ﯿ": 561,
      "##ﲨ": 562,
      "##ﱂ": 563,
      "##ﻏ": 564,
      "##ﺈ": 565,
      "##ﻆ": 566,
      "##ٺ": 567,
      "##ﭾ": 568,
      "##ﯧ": 569,
      "##ڧ": 570,
      "##ﺶ": 571,
      "##ڣ": 572,
      "##ﺝ": 573,
      "##ڟ": 574,
      "##ٳ": 575,
      "##ﺅ": 576,
      "##ﻺ": 577,
      "##ﺫ": 578,
      "##ﻯ": 579,
      "##ږ": 580,
      "##ﺞ": 581,
      "##څ": 582,
      "##ﺆ": 583,
      "##ﺄ": 584,
      "##ٿ": 585,
      "##ڼ": 586,
      "##ڄ": 587,
      "##ڠ": 588,
      "##ۯ": 589,
      "##ٽ": 590,
      "##ﳋ": 591,
      "##ﺙ": 592,
      "##ڥ": 593,
      "##ﮱ": 594,
      "##ﺺ": 595,
      "##ﮭ": 596,
      "##ۅ": 597,
      "##ࢦ": 598,
      "##ﮫ": 599,
      "##ۀ": 600,
      "##ﺾ": 601,
      "##ﮔ": 602,
      "##ڰ": 603,
      "##ڱ": 604,
      "##ڀ": 605,
      "##ﭬ": 606,
      "##ﻎ": 607,
      "##ﱪ": 608,
      "##ﺵ": 609,
      "##ۓ": 610,
      "##ۉ": 611,
      "##ﮂ": 612,
      "##ڞ": 613,
      "##ݳ": 614,
      "##ډ": 615,
      "##ﻸ": 616,
      "##ݠ": 617,
      "##ﻂ": 618,
      "##ﺚ": 619,
      "##ڳ": 620,
      "##ﮩ": 621,
      "##ٻ": 622,
      "##ﯠ": 623,
      "##ﯟ": 624,
      "##ٶ": 625,
      "##ڇ": 626,
      "##ﯽ": 627,
      "##ﳌ": 628,
      "##ﹾ": 629,
      "##ڔ": 630,
      "##ﭭ": 631,
      "##ࢥ": 632,
      "##ﯡ": 633,
      "##ڸ": 634,
      "##ﺇ": 635,
      "##ڊ": 636,
      "##ڌ": 637,
      "##ﺉ": 638,
      "##ﭓ": 639,
      "##ﱦ": 640,
      "##ﮗ": 641,
      "##ﮬ": 642,
      "##ڢ": 643,
      "##ﻇ": 644,
      "##ﮐ": 645,
      "##ڬ": 646,
      "##ۏ": 647,
      "##ﯨ": 648,
      "##ﯙ": 649,
      "##ݸ": 650,
      "##ﺹ": 651,
      "##ڃ": 652,
      "##ٴ": 653,
      "##ﮏ": 654,
      "##ﱢ": 655,
      "##ڦ": 656,
      "##ﯛ": 657,
      "##ٵ": 658,
      "##ﺊ": 659,
      "##ﮢ": 660,
      "##ﻍ": 661,
      "##ۄ": 662,
      "##ݨ": 663,
      "##ﭽ": 664,
      "##ڴ": 665,
      "##ﲪ": 666,
      "##ﮕ": 667,
      "##ﲔ": 668,
      "##ﲡ": 669,
      "##ﮋ": 670,
      "##ﭠ": 671,
      "##ﱯ": 672,
      "##ﭸ": 673,
      "##ﯢ": 674,
      "##ڂ": 675,
      "##ﮥ": 676,
      "##ڮ": 677,
      "##ﳝ": 678,
      "##ﭐ": 679,
      "##ﭙ": 680,
      "##ﳊ": 681,
      "##ﹺ": 682,
      "##ڲ": 683,
      "##ݗ": 684,
      "##ݾ": 685,
      "##ﻅ": 686,
      "##ڝ": 687,
      "##ﭼ": 688,
      "##ڙ": 689,
      "##ﱘ": 690,
      "##ڎ": 691,
      "##ڽ": 692,
      "##ﭺ": 693,
      "##ݦ": 694,
      "##ﱠ": 695,
      "##ٷ": 696,
      "##ﱃ": 697,
      "ال": 698,
      "##ال": 699,
      "##يه": 700,
      "##ان": 701,
      "ان": 702,
      "##لي": 703,
      "##ين": 704,
      "##لا": 705,
      "##له": 706,
      "من": 707,
      "##ات": 708,
      "في": 709,
      "##ار": 710,
      "الم": 711,
      "##ها": 712,
      "##نا": 713,
      "##ير": 714,
      "الا": 715,
      "##وا": 716,
      "ما": 717,
      "##هم": 718,
      "##ون": 719,
      "علي": 720,
      "##ري": 721,
      "##ول": 722,
      "##را": 723,
      "##ما": 724,
      "##دي": 725,
      "مش": 726,
      "مع": 727,
      "##ده": 728,
      "بس": 729,
      "##يا": 730,
      "عن": 731,
      "وال": 732,
      "بال": 733,
      "##ست": 734,
      "##بي": 735,
      "##ره": 736,
      "##لم": 737,
      "##اي": 738,
      "او": 739,
      "##ني": 740,
      "وا": 741,
      "لا": 742,
      "##تي": 743,
      "##دا": 744,
      "انا": 745,
      "##كن": 746,
      "بت": 747,
      "##قي": 748,
      "الع": 749,
      "##ذا": 750,
      "##رف": 751,
      "بي": 752,
      "##ام": 753,
      "##اب": 754,
      "اللي": 755,
      "الح": 756,
      "##اج": 757,
      "##فس": 758,
      "الله": 759,
      "##عد": 760,
      "##لو": 761,
      "##رب": 762,
      "الي": 763,
      "##حد": 764,
      "لو": 765,
      "الس": 766,
      "##ور": 767,
      "كل": 768,
      "كان": 769,
      "انت": 770,
      "##مه": 771,
      "يع": 772,
      "##به": 773,
      "##وي": 774,
      "الش": 775,
      "الت": 776,
      "##هه": 777,
      "##في": 778,
      "##رو": 779,
      "فيه": 780,
      "##مل": 781,
      "اح": 782,
      "##تك": 783,
      "اي": 784,
      "##لام": 785,
      "اس": 786,
      "ولا": 787,
      "##كل": 788,
      "##اس": 789,
      "هي": 790,
      "##قه": 791,
      "##نت": 792,
      "##در": 793,
      "##شان": 794,
      "الب": 795,
      "نفس": 796,
      "اك": 797,
      "هو": 798,
      "##كم": 799,
      "##ليه": 800,
      "##وم": 801,
      "##عي": 802,
      "##كون": 803,
      "##عه": 804,
      "الج": 805,
      "اخ": 806,
      "وم": 807,
      "##قت": 808,
      "مت": 809,
      "مو": 810,
      "##حت": 811,
      "ده": 812,
      "الد": 813,
      "##وع": 814,
      "لل": 815,
      "##ود": 816,
      "##اجه": 817,
      "عشان": 818,
      "##وف": 819,
      "##قول": 820,
      "لان": 821,
      "##مي": 822,
      "الف": 823,
      "##كر": 824,
      "الن": 825,
      "##عت": 826,
      "يا": 827,
      "ات": 828,
      "##خص": 829,
      "وب": 830,
      "اب": 831,
      "الق": 832,
      "##اد": 833,
      "##مكن": 834,
      "##لك": 835,
      "وت": 836,
      "الك": 837,
      "##اء": 838,
      "انه": 839,
      "##رج": 840,
      "##ناس": 841,
      "تع": 842,
      "##حي": 843,
      "##سي": 844,
      "##اف": 845,
      "حاجه": 846,
      "##حه": 847,
      "##صل": 848,
      "##اني": 849,
      "##اه": 850,
      "غير": 851,
      "##رك": 852,
      "دي": 853,
      "شي": 854,
      "ام": 855,
      "##ته": 856,
      "عليه": 857,
      "##بر": 858,
      "الص": 859,
      "##غل": 860,
      "عند": 861,
      "##نه": 862,
      "يعني": 863,
      "##بل": 864,
      "اع": 865,
      "زي": 866,
      "لي": 867,
      "##ائ": 868,
      "##اح": 869,
      "##اع": 870,
      "##خل": 871,
      "اش": 872,
      "##جي": 873,
      "وي": 874,
      "##وض": 875,
      "##رض": 876,
      "بعد": 877,
      "##تم": 878,
      "##كي": 879,
      "وان": 880,
      "##صر": 881,
      "تق": 882,
      "##فه": 883,
      "##لها": 884,
      "##طل": 885,
      "##عب": 886,
      "##سه": 887,
      "الناس": 888,
      "اذا": 889,
      "حد": 890,
      "##الي": 891,
      "##وق": 892,
      "##دم": 893,
      "ممكن": 894,
      "اص": 895,
      "حتي": 896,
      "بن": 897,
      "الخ": 898,
      "لكن": 899,
      "تح": 900,
      "الو": 901,
      "##وه": 902,
      "##تر": 903,
      "اق": 904,
      "انك": 905,
      "بد": 906,
      "##جه": 907,
      "بع": 908,
      "عم": 909,
      "##من": 910,
      "##با": 911,
      "مث": 912,
      "##شي": 913,
      "ايه": 914,
      "##كت": 915,
      "الاس": 916,
      "مح": 917,
      "عا": 918,
      "##فت": 919,
      "##اله": 920,
      "اه": 921,
      "##وله": 922,
      "دا": 923,
      "وه": 924,
      "مس": 925,
      "اني": 926,
      "هت": 927,
      "##مد": 928,
      "##زم": 929,
      "تت": 930,
      "است": 931,
      "هذا": 932,
      "##قا": 933,
      "كت": 934,
      "يت": 935,
      "##غير": 936,
      "##هههه": 937,
      "##رد": 938,
      "لما": 939,
      "فا": 940,
      "##يد": 941,
      "كده": 942,
      "##طه": 943,
      "##عم": 944,
      "##بقي": 945,
      "عاي": 946,
      "واحد": 947,
      "وح": 948,
      "##سب": 949,
      "##كان": 950,
      "##سم": 951,
      "##عا": 952,
      "فيها": 953,
      "##رت": 954,
      "بش": 955,
      "##قد": 956,
      "بح": 957,
      "##وضوع": 958,
      "كنت": 959,
      "اف": 960,
      "##بت": 961,
      "الان": 962,
      "##مان": 963,
      "##قل": 964,
      "##يل": 965,
      "##رق": 966,
      "الط": 967,
      "##ويه": 968,
      "ول": 969,
      "با": 970,
      "##يف": 971,
      "##وب": 972,
      "بين": 973,
      "##ثر": 974,
      "##كره": 975,
      "##الم": 976,
      "##رح": 977,
      "ليه": 978,
      "##يب": 979,
      "##وت": 980,
      "##فع": 981,
      "جدا": 982,
      "##وج": 983,
      "##كله": 984,
      "وع": 985,
      "يح": 986,
      "مج": 987,
      "اج": 988,
      "يكون": 989,
      "##نس": 990,
      "##ضل": 991,
      "رب": 992,
      "##يات": 993,
      "##اره": 994,
      "فع": 995,
      "مست": 996,
      "شخص": 997,
      "##بب": 998,
      "##انيه": 999,
      "##ولي": 1000,
      "الموضوع": 1001,
      "##سلم": 1002,
      "##لت": 1003,
      "##سط": 1004,
      "##خت": 1005,
      "##يره": 1006,
      "##اري": 1007,
      "##وز": 1008,
      "##اك": 1009,
      "عار": 1010,
      "وش": 1011,
      "##ذي": 1012,
      "##ضي": 1013,
      "ناس": 1014,
      "هنا": 1015,
      "لازم": 1016,
      "طب": 1017,
      "اله": 1018,
      "##يها": 1019,
      "عايز": 1020,
      "لم": 1021,
      "والله": 1022,
      "تش": 1023,
      "قبل": 1024,
      "##سن": 1025,
      "##صه": 1026,
      "هل": 1027,
      "يوم": 1028,
      "##شر": 1029,
      "##سا": 1030,
      "وج": 1031,
      "كلام": 1032,
      "كانت": 1033,
      "بل": 1034,
      "اصلا": 1035,
      "##طي": 1036,
      "قال": 1037,
      "##عرف": 1038,
      "تف": 1039,
      "مصر": 1040,
      "##اول": 1041,
      "##ثير": 1042,
      "##مع": 1043,
      "عادي": 1044,
      "مره": 1045,
      "له": 1046,
      "##مر": 1047,
      "اد": 1048,
      "##وره": 1049,
      "المش": 1050,
      "##يني": 1051,
      "مب": 1052,
      "كتير": 1053,
      "##ينه": 1054,
      "##يم": 1055,
      "##رم": 1056,
      "بعض": 1057,
      "##تكلم": 1058,
      "الاخ": 1059,
      "يق": 1060,
      "##طلع": 1061,
      "الز": 1062,
      "صح": 1063,
      "وق": 1064,
      "عارف": 1065,
      "##نين": 1066,
      "از": 1067,
      "##اخ": 1068,
      "كدا": 1069,
      "##لط": 1070,
      "##امل": 1071,
      "مص": 1072,
      "للا": 1073,
      "##تها": 1074,
      "لك": 1075,
      "##فر": 1076,
      "انها": 1077,
      "##ياه": 1078,
      "تب": 1079,
      "##ند": 1080,
      "##ارك": 1081,
      "##قط": 1082,
      "اول": 1083,
      "##ارب": 1084,
      "##اا": 1085,
      "تج": 1086,
      "سنه": 1087,
      "##هر": 1088,
      "الغ": 1089,
      "##كس": 1090,
      "##تش": 1091,
      "بص": 1092,
      "ون": 1093,
      "تكون": 1094,
      "##الك": 1095,
      "##لب": 1096,
      "مثلا": 1097,
      "##تح": 1098,
      "##رام": 1099,
      "فعلا": 1100,
      "كب": 1101,
      "عل": 1102,
      "##عمل": 1103,
      "##زي": 1104,
      "##روح": 1105,
      "##وك": 1106,
      "تن": 1107,
      "##لاق": 1108,
      "##ذه": 1109,
      "##وان": 1110,
      "اما": 1111,
      "تخ": 1112,
      "يش": 1113,
      "عندي": 1114,
      "##وري": 1115,
      "اكثر": 1116,
      "الاسلام": 1117,
      "##ضح": 1118,
      "الر": 1119,
      "معا": 1120,
      "الدين": 1121,
      "محت": 1122,
      "خل": 1123,
      "كله": 1124,
      "##فيش": 1125,
      "##جد": 1126,
      "الار": 1127,
      "##بط": 1128,
      "حيات": 1129,
      "ين": 1130,
      "##انه": 1131,
      "يب": 1132,
      "احنا": 1133,
      "الام": 1134,
      "نفسك": 1135,
      "واح": 1136,
      "شيء": 1137,
      "اكتر": 1138,
      "ربنا": 1139,
      "وانا": 1140,
      "نفسي": 1141,
      "وقت": 1142,
      "مق": 1143,
      "##زه": 1144,
      "##راحه": 1145,
      "مي": 1146,
      "كيف": 1147,
      "##ربيه": 1148,
      "##ربي": 1149,
      "##راه": 1150,
      "تص": 1151,
      "##عل": 1152,
      "##ايف": 1153,
      "حق": 1154,
      "##زل": 1155,
      "##وش": 1156,
      "نص": 1157,
      "تس": 1158,
      "بم": 1159,
      "الث": 1160,
      "وما": 1161,
      "##لات": 1162,
      "##وص": 1163,
      "##رائ": 1164,
      "والم": 1165,
      "كثير": 1166,
      "##فا": 1167,
      "##وات": 1168,
      "نظ": 1169,
      "##تمع": 1170,
      "##ينا": 1171,
      "##يش": 1172,
      "##لف": 1173,
      "##اط": 1174,
      "##وح": 1175,
      "عليك": 1176,
      "عندك": 1177,
      "##سان": 1178,
      "كذا": 1179,
      "##ارات": 1180,
      "عليها": 1181,
      "هم": 1182,
      "غلط": 1183,
      "##حب": 1184,
      "بق": 1185,
      "##جل": 1186,
      "عمل": 1187,
      "##دق": 1188,
      "طبي": 1189,
      "الوا": 1190,
      "حال": 1191,
      "بشكل": 1192,
      "##خلي": 1193,
      "احد": 1194,
      "##ريقه": 1195,
      "كمان": 1196,
      "مفيش": 1197,
      "##عود": 1198,
      "##غلب": 1199,
      "##ياء": 1200,
      "##وني": 1201,
      "فت": 1202,
      "سا": 1203,
      "لانه": 1204,
      "العالم": 1205,
      "يس": 1206,
      "صار": 1207,
      "##جيب": 1208,
      "##عو": 1209,
      "سي": 1210,
      "بالم": 1211,
      "به": 1212,
      "الكلام": 1213,
      "وص": 1214,
      "##كا": 1215,
      "تد": 1216,
      "##اص": 1217,
      "كوي": 1218,
      "##هههههههه": 1219,
      "مكان": 1220,
      "قد": 1221,
      "##رات": 1222,
      "محمد": 1223,
      "مد": 1224,
      "##بيت": 1225,
      "فال": 1226,
      "الشخص": 1227,
      "علا": 1228,
      "##نيه": 1229,
      "رح": 1230,
      "##جب": 1231,
      "المج": 1232,
      "الشي": 1233,
      "راح": 1234,
      "##علم": 1235,
      "برض": 1236,
      "يد": 1237,
      "##ران": 1238,
      "##بح": 1239,
      "تم": 1240,
      "##ابه": 1241,
      "تاني": 1242,
      "##طب": 1243,
      "للم": 1244,
      "راي": 1245,
      "يقول": 1246,
      "وك": 1247,
      "اللهم": 1248,
      "##قع": 1249,
      "طبعا": 1250,
      "احسن": 1251,
      "##لاقي": 1252,
      "##كو": 1253,
      "عام": 1254,
      "علشان": 1255,
      "##شه": 1256,
      "##وس": 1257,
      "##لمه": 1258,
      "##ليل": 1259,
      "بدون": 1260,
      "##دام": 1261,
      "منه": 1262,
      "##رجع": 1263,
      "اعرف": 1264,
      "مات": 1265,
      "##ريه": 1266,
      "##قتي": 1267,
      "##ئه": 1268,
      "عب": 1269,
      "وف": 1270,
      "دول": 1271,
      "مه": 1272,
      "##ضر": 1273,
      "المص": 1274,
      "موج": 1275,
      "##نات": 1276,
      "##نيا": 1277,
      "بنت": 1278,
      "دين": 1279,
      "بقي": 1280,
      "انهم": 1281,
      "##لوس": 1282,
      "عال": 1283,
      "حلو": 1284,
      "##باب": 1285,
      "يص": 1286,
      "ازاي": 1287,
      "بيت": 1288,
      "انو": 1289,
      "لح": 1290,
      "كم": 1291,
      "مين": 1292,
      "##يي": 1293,
      "يبقي": 1294,
      "بسبب": 1295,
      "##راء": 1296,
      "##ديد": 1297,
      "##دين": 1298,
      "##سف": 1299,
      "##ريب": 1300,
      "##روض": 1301,
      "محد": 1302,
      "##قف": 1303,
      "##تغل": 1304,
      "##كه": 1305,
      "اعت": 1306,
      "##فق": 1307,
      "##واج": 1308,
      "##غي": 1309,
      "##اكل": 1310,
      "يمكن": 1311,
      "مثل": 1312,
      "##لاص": 1313,
      "الوقت": 1314,
      "##طف": 1315,
      "##مت": 1316,
      "يست": 1317,
      "المسلم": 1318,
      "##لهم": 1319,
      "##ريق": 1320,
      "الل": 1321,
      "شويه": 1322,
      "قا": 1323,
      "عنده": 1324,
      "شك": 1325,
      "##هل": 1326,
      "دلو": 1327,
      "##دك": 1328,
      "المشكله": 1329,
      "##فهم": 1330,
      "شو": 1331,
      "تست": 1332,
      "بلا": 1333,
      "##اجات": 1334,
      "##مام": 1335,
      "حل": 1336,
      "بك": 1337,
      "##خد": 1338,
      "اكيد": 1339,
      "منها": 1340,
      "منهم": 1341,
      "كلها": 1342,
      "##وست": 1343,
      "المت": 1344,
      "وس": 1345,
      "##غه": 1346,
      "نفسه": 1347,
      "##يهم": 1348,
      "ولو": 1349,
      "قص": 1350,
      "فر": 1351,
      "##قات": 1352,
      "##وده": 1353,
      "##ركه": 1354,
      "##طر": 1355,
      "جمي": 1356,
      "حس": 1357,
      "فل": 1358,
      "ومش": 1359,
      "طل": 1360,
      "##جا": 1361,
      "شايف": 1362,
      "رج": 1363,
      "##عوديه": 1364,
      "ري": 1365,
      "تك": 1366,
      "شاء": 1367,
      "##فروض": 1368,
      "المن": 1369,
      "وهو": 1370,
      "دلوقتي": 1371,
      "##وار": 1372,
      "المع": 1373,
      "##ئي": 1374,
      "افضل": 1375,
      "##وال": 1376,
      "مشكله": 1377,
      "برا": 1378,
      "##يام": 1379,
      "مهم": 1380,
      "##قدر": 1381,
      "فاهم": 1382,
      "##قب": 1383,
      "تحت": 1384,
      "فكره": 1385,
      "علم": 1386,
      "##نب": 1387,
      "##سك": 1388,
      "يخ": 1389,
      "مل": 1390,
      "##نسبه": 1391,
      "اخر": 1392,
      "##عيه": 1393,
      "الرا": 1394,
      "##شوف": 1395,
      "ولكن": 1396,
      "##فك": 1397,
      "ملي": 1398,
      "##نع": 1399,
      "تعرف": 1400,
      "بالع": 1401,
      "وانت": 1402,
      "الرج": 1403,
      "واحده": 1404,
      "انتي": 1405,
      "حرف": 1406,
      "وخ": 1407,
      "##ظر": 1408,
      "##سل": 1409,
      "مخ": 1410,
      "شوف": 1411,
      "##فل": 1412,
      "فقط": 1413,
      "##اض": 1414,
      "##انا": 1415,
      "##دد": 1416,
      "##هي": 1417,
      "سوا": 1418,
      "##لوم": 1419,
      "لن": 1420,
      "الاج": 1421,
      "اخت": 1422,
      "ومن": 1423,
      "لحد": 1424,
      "لب": 1425,
      "##لد": 1426,
      "##لين": 1427,
      "يارب": 1428,
      "##رش": 1429,
      "##اتي": 1430,
      "مؤ": 1431,
      "الذ": 1432,
      "##عر": 1433,
      "اليوم": 1434,
      "بجد": 1435,
      "خط": 1436,
      "بنفس": 1437,
      "اكبر": 1438,
      "##بك": 1439,
      "بط": 1440,
      "##ادي": 1441,
      "خال": 1442,
      "##قيقه": 1443,
      "الحمد": 1444,
      "طيب": 1445,
      "نس": 1446,
      "اسم": 1447,
      "لها": 1448,
      "هذه": 1449,
      "##علي": 1450,
      "مسلم": 1451,
      "دخل": 1452,
      "كويس": 1453,
      "##فكر": 1454,
      "ليش": 1455,
      "اغلب": 1456,
      "مخت": 1457,
      "عندهم": 1458,
      "خير": 1459,
      "الدنيا": 1460,
      "وكل": 1461,
      "صحي": 1462,
      "##جوز": 1463,
      "هيك": 1464,
      "##امعه": 1465,
      "اوي": 1466,
      "##رر": 1467,
      "تو": 1468,
      "تقول": 1469,
      "فتره": 1470,
      "##قيه": 1471,
      "قلت": 1472,
      "وفي": 1473,
      "هما": 1474,
      "حرفيا": 1475,
      "بالنسبه": 1476,
      "##اريخ": 1477,
      "الحياه": 1478,
      "اساس": 1479,
      "هال": 1480,
      "##ديو": 1481,
      "وبعد": 1482,
      "كبير": 1483,
      "##تهم": 1484,
      "موض": 1485,
      "##سول": 1486,
      "نح": 1487,
      "طبيعي": 1488,
      "##وقع": 1489,
      "##دو": 1490,
      "خلي": 1491,
      "طول": 1492,
      "##رائيل": 1493,
      "##بات": 1494,
      "موا": 1495,
      "##ؤال": 1496,
      "نت": 1497,
      "##افه": 1498,
      "الشعب": 1499,
      "هذي": 1500,
      "احت": 1501,
      "##زوج": 1502,
      "طال": 1503,
      "يم": 1504,
      "برضو": 1505,
      "##شخ": 1506,
      "والت": 1507,
      "عليهم": 1508,
      "الاول": 1509,
      "المسلمين": 1510,
      "##صح": 1511,
      "جز": 1512,
      "للاسف": 1513,
      "شغ": 1514,
      "##ديت": 1515,
      "##لاح": 1516,
      "اشوف": 1517,
      "الفي": 1518,
      "##عيد": 1519,
      "##فضل": 1520,
      "حي": 1521,
      "##اليه": 1522,
      "##قص": 1523,
      "الاح": 1524,
      "##اته": 1525,
      "المفروض": 1526,
      "##قبل": 1527,
      "بتاع": 1528,
      "بتح": 1529,
      "نا": 1530,
      "داي": 1531,
      "##ذكر": 1532,
      "بيح": 1533,
      "را": 1534,
      "اغ": 1535,
      "عق": 1536,
      "بب": 1537,
      "##صب": 1538,
      "بعدين": 1539,
      "##عيش": 1540,
      "يه": 1541,
      "##فظ": 1542,
      "سم": 1543,
      "وهي": 1544,
      "قول": 1545,
      "سنين": 1546,
      "ار": 1547,
      "تط": 1548,
      "يعرف": 1549,
      "##ربه": 1550,
      "##ضع": 1551,
      "قل": 1552,
      "##وو": 1553,
      "وات": 1554,
      "التي": 1555,
      "بالت": 1556,
      "هناك": 1557,
      "المست": 1558,
      "المح": 1559,
      "اقول": 1560,
      "اشي": 1561,
      "المجتمع": 1562,
      "السعوديه": 1563,
      "معاه": 1564,
      "صاح": 1565,
      "الاست": 1566,
      "صغير": 1567,
      "احس": 1568,
      "وسلم": 1569,
      "موضوع": 1570,
      "تقدر": 1571,
      "خلاص": 1572,
      "الكل": 1573,
      "امري": 1574,
      "حصل": 1575,
      "علاقه": 1576,
      "والح": 1577,
      "سبب": 1578,
      "ابن": 1579,
      "##بار": 1580,
      "البلد": 1581,
      "السي": 1582,
      "##وها": 1583,
      "شر": 1584,
      "##ريبا": 1585,
      "ورا": 1586,
      "مرت": 1587,
      "##قاش": 1588,
      "##مال": 1589,
      "لسه": 1590,
      "دوله": 1591,
      "وين": 1592,
      "اقل": 1593,
      "الاخر": 1594,
      "منط": 1595,
      "##خدم": 1596,
      "فلوس": 1597,
      "كام": 1598,
      "خص": 1599,
      "##مني": 1600,
      "##سر": 1601,
      "##فض": 1602,
      "حاول": 1603,
      "معاك": 1604,
      "##الح": 1605,
      "##ناء": 1606,
      "كي": 1607,
      "الجز": 1608,
      "بكل": 1609,
      "حسب": 1610,
      "العربيه": 1611,
      "ابدا": 1612,
      "##ظم": 1613,
      "##ونه": 1614,
      "اسرائيل": 1615,
      "لله": 1616,
      "##دن": 1617,
      "##روف": 1618,
      "تانيه": 1619,
      "القران": 1620,
      "وحده": 1621,
      "##عبه": 1622,
      "##قك": 1623,
      "##دت": 1624,
      "موجود": 1625,
      "يج": 1626,
      "المهم": 1627,
      "##الت": 1628,
      "##اتك": 1629,
      "البيت": 1630,
      "بيه": 1631,
      "وعلي": 1632,
      "ضد": 1633,
      "اعمل": 1634,
      "##ساعد": 1635,
      "##سطين": 1636,
      "##وما": 1637,
      "##خي": 1638,
      "عي": 1639,
      "هاي": 1640,
      "تشوف": 1641,
      "##عامل": 1642,
      "مني": 1643,
      "بيها": 1644,
      "اهم": 1645,
      "##فتح": 1646,
      "##ولا": 1647,
      "##وريا": 1648,
      "عايش": 1649,
      "##ذب": 1650,
      "شغل": 1651,
      "يك": 1652,
      "##غرب": 1653,
      "لت": 1654,
      "##لاه": 1655,
      "##طلب": 1656,
      "##شت": 1657,
      "##الله": 1658,
      "وكان": 1659,
      "بيقول": 1660,
      "##مس": 1661,
      "##ظه": 1662,
      "ذلك": 1663,
      "##ماء": 1664,
      "##كتب": 1665,
      "اث": 1666,
      "##فيه": 1667,
      "##ناه": 1668,
      "##ديه": 1669,
      "منك": 1670,
      "صلي": 1671,
      "بالله": 1672,
      "حاس": 1673,
      "##لوب": 1674,
      "العلم": 1675,
      "كلامك": 1676,
      "##ياده": 1677,
      "تقريبا": 1678,
      "##ديث": 1679,
      "شكرا": 1680,
      "##جم": 1681,
      "والا": 1682,
      "##وط": 1683,
      "الواحد": 1684,
      "##رار": 1685,
      "عرف": 1686,
      "##ديده": 1687,
      "ايش": 1688,
      "##انيا": 1689,
      "الحل": 1690,
      "المصري": 1691,
      "الصح": 1692,
      "##تب": 1693,
      "ود": 1694,
      "##صي": 1695,
      "##اصه": 1696,
      "وز": 1697,
      "##غم": 1698,
      "فوق": 1699,
      "محتاج": 1700,
      "مجرد": 1701,
      "سواء": 1702,
      "باي": 1703,
      "الدوله": 1704,
      "##راق": 1705,
      "المس": 1706,
      "##ظيم": 1707,
      "##خر": 1708,
      "عندنا": 1709,
      "ماي": 1710,
      "##بيه": 1711,
      "روح": 1712,
      "##دل": 1713,
      "##اعده": 1714,
      "سن": 1715,
      "بر": 1716,
      "##تما": 1717,
      "البنت": 1718,
      "##جر": 1719,
      "اهل": 1720,
      "بالك": 1721,
      "##كتور": 1722,
      "عليكم": 1723,
      "##ضا": 1724,
      "جاي": 1725,
      "لاني": 1726,
      "ذا": 1727,
      "##تين": 1728,
      "لهم": 1729,
      "مر": 1730,
      "##از": 1731,
      "بتا": 1732,
      "##اهل": 1733,
      "صحيح": 1734,
      "عنه": 1735,
      "##جع": 1736,
      "زمان": 1737,
      "صعب": 1738,
      "##خلص": 1739,
      "ابو": 1740,
      "الض": 1741,
      "##كومه": 1742,
      "حقي": 1743,
      "الفكره": 1744,
      "ربي": 1745,
      "فهم": 1746,
      "##ابع": 1747,
      "فيهم": 1748,
      "##وقف": 1749,
      "الموا": 1750,
      "بالن": 1751,
      "كانوا": 1752,
      "البنات": 1753,
      "##قتل": 1754,
      "##طع": 1755,
      "بتت": 1756,
      "محدش": 1757,
      "##وصا": 1758,
      "##هو": 1759,
      "وبي": 1760,
      "الذي": 1761,
      "الانسان": 1762,
      "##اخد": 1763,
      "كبيره": 1764,
      "بان": 1765,
      "اولا": 1766,
      "##يك": 1767,
      "##درس": 1768,
      "##بع": 1769,
      "ولي": 1770,
      "عاوز": 1771,
      "##ارع": 1772,
      "##طا": 1773,
      "##انون": 1774,
      "##خذ": 1775,
      "شفت": 1776,
      "##طفال": 1777,
      "ترا": 1778,
      "معرف": 1779,
      "الارض": 1780,
      "هاد": 1781,
      "تعمل": 1782,
      "دما": 1783,
      "السلام": 1784,
      "طريقه": 1785,
      "امريكا": 1786,
      "##افر": 1787,
      "##دف": 1788,
      "قاعد": 1789,
      "##وضع": 1790,
      "وبت": 1791,
      "##خخ": 1792,
      "##عودي": 1793,
      "تل": 1794,
      "حاجات": 1795,
      "شع": 1796,
      "##عات": 1797,
      "النفس": 1798,
      "الدول": 1799,
      "مال": 1800,
      "حاليا": 1801,
      "شوي": 1802,
      "العرب": 1803,
      "##ضيع": 1804,
      "##مله": 1805,
      "نق": 1806,
      "مشاكل": 1807,
      "##راض": 1808,
      "##فيد": 1809,
      "##سمع": 1810,
      "##حيه": 1811,
      "ها": 1812,
      "##قش": 1813,
      "##ضحك": 1814,
      "فكر": 1815,
      "بدا": 1816,
      "شهر": 1817,
      "لاي": 1818,
      "غال": 1819,
      "ابي": 1820,
      "حرام": 1821,
      "ترك": 1822,
      "##لله": 1823,
      "الوحي": 1824,
      "والع": 1825,
      "##فات": 1826,
      "##افيه": 1827,
      "واضح": 1828,
      "ست": 1829,
      "بسي": 1830,
      "تبقي": 1831,
      "دايما": 1832,
      "هن": 1833,
      "قدام": 1834,
      "جي": 1835,
      "كلهم": 1836,
      "خالص": 1837,
      "##ضه": 1838,
      "##اااا": 1839,
      "هوا": 1840,
      "التح": 1841,
      "##مار": 1842,
      "##بد": 1843,
      "##جاب": 1844,
      "بالح": 1845,
      "حلوه": 1846,
      "##خه": 1847,
      "##نان": 1848,
      "##درجه": 1849,
      "الاش": 1850,
      "تعلي": 1851,
      "عمر": 1852,
      "ور": 1853,
      "الزواج": 1854,
      "##جات": 1855,
      "ايام": 1856,
      "##ذلك": 1857,
      "##قتص": 1858,
      "عموما": 1859,
      "##ريد": 1860,
      "##ديم": 1861,
      "##طور": 1862,
      "بخ": 1863,
      "جد": 1864,
      "##اش": 1865,
      "##ثه": 1866,
      "##صد": 1867,
      "الظ": 1868,
      "##وء": 1869,
      "يعمل": 1870,
      "ليس": 1871,
      "بلد": 1872,
      "##ظي": 1873,
      "راج": 1874,
      "عاد": 1875,
      "##وفي": 1876,
      "##عض": 1877,
      "##ارج": 1878,
      "##ريم": 1879,
      "##ضان": 1880,
      "##هايه": 1881,
      "حبي": 1882,
      "شه": 1883,
      "##صريه": 1884,
      "البوست": 1885,
      "خصوصا": 1886,
      "كلمه": 1887,
      "برد": 1888,
      "##ظام": 1889,
      "واذا": 1890,
      "##بها": 1891,
      "حياتك": 1892,
      "##حيل": 1893,
      "##غلط": 1894,
      "##ايه": 1895,
      "الات": 1896,
      "الاب": 1897,
      "حدا": 1898,
      "راس": 1899,
      "##ركات": 1900,
      "والس": 1901,
      "##طن": 1902,
      "يصير": 1903,
      "وغير": 1904,
      "##قيت": 1905,
      "وصل": 1906,
      "##ندي": 1907,
      "حياتي": 1908,
      "الفل": 1909,
      "##انب": 1910,
      "ثم": 1911,
      "كلم": 1912,
      "##تري": 1913,
      "بعدها": 1914,
      "فيك": 1915,
      "##بوع": 1916,
      "البي": 1917,
      "يف": 1918,
      "عندها": 1919,
      "##امه": 1920,
      "##واز": 1921,
      "انسان": 1922,
      "مك": 1923,
      "جرب": 1924,
      "حب": 1925,
      "اليه": 1926,
      "مكن": 1927,
      "##مو": 1928,
      "بنات": 1929,
      "سبح": 1930,
      "##صير": 1931,
      "فان": 1932,
      "##ماعه": 1933,
      "بصراحه": 1934,
      "النس": 1935,
      "##دخل": 1936,
      "##حق": 1937,
      "سيا": 1938,
      "معايا": 1939,
      "##زق": 1940,
      "##اده": 1941,
      "بتقول": 1942,
      "الري": 1943,
      "##حتاج": 1944,
      "بها": 1945,
      "##خصص": 1946,
      "اقدر": 1947,
      "وهم": 1948,
      "##روب": 1949,
      "##ائر": 1950,
      "##لاب": 1951,
      "##غط": 1952,
      "ساعه": 1953,
      "##سيه": 1954,
      "دور": 1955,
      "عليا": 1956,
      "##عار": 1957,
      "بما": 1958,
      "##داء": 1959,
      "عنها": 1960,
      "للت": 1961,
      "وجود": 1962,
      "مط": 1963,
      "اكون": 1964,
      "##ؤمن": 1965,
      "واخ": 1966,
      "يجي": 1967,
      "رد": 1968,
      "الشر": 1969,
      "مز": 1970,
      "كسم": 1971,
      "##ديا": 1972,
      "عبد": 1973,
      "عايزه": 1974,
      "بقول": 1975,
      "##ريبه": 1976,
      "##جلي": 1977,
      "ته": 1978,
      "##عتها": 1979,
      "قت": 1980,
      "البشر": 1981,
      "##وتي": 1982,
      "اسمه": 1983,
      "##ضرب": 1984,
      "##ريح": 1985,
      "فلسطين": 1986,
      "##هههههههههههههههه": 1987,
      "نوع": 1988,
      "غالبا": 1989,
      "##اتب": 1990,
      "نصي": 1991,
      "##نام": 1992,
      "المراه": 1993,
      "##اعات": 1994,
      "قدر": 1995,
      "سؤال": 1996,
      "##ابل": 1997,
      "حساب": 1998,
      "تفك": 1999,
      "##قر": 2000,
      "شكل": 2001,
      "نفسها": 2002,
      "الحق": 2003,
      "الوضع": 2004,
      "فين": 2005,
      "سوريا": 2006,
      "يقدر": 2007,
      "##جز": 2008,
      "##حث": 2009,
      "السبب": 2010,
      "##ايق": 2011,
      "صدي": 2012,
      "ماش": 2013,
      "يطلع": 2014,
      "##طق": 2015,
      "صدق": 2016,
      "شعب": 2017,
      "##زيد": 2018,
      "##الب": 2019,
      "##كلم": 2020,
      "الاع": 2021,
      "معك": 2022,
      "الجنس": 2023,
      "واس": 2024,
      "اننا": 2025,
      "##ذن": 2026,
      "تر": 2027,
      "##وبه": 2028,
      "معاهم": 2029,
      "دع": 2030,
      "##بره": 2031,
      "##انات": 2032,
      "علينا": 2033,
      "تا": 2034,
      "##وجه": 2035,
      "##اكد": 2036,
      "##اسب": 2037,
      "##تنا": 2038,
      "بدل": 2039,
      "كلنا": 2040,
      "منت": 2041,
      "مليون": 2042,
      "##ذر": 2043,
      "المد": 2044,
      "لانها": 2045,
      "جديد": 2046,
      "للح": 2047,
      "احب": 2048,
      "ومع": 2049,
      "ذكر": 2050,
      "العمل": 2051,
      "بالش": 2052,
      "درا": 2053,
      "مجتمع": 2054,
      "بدي": 2055,
      "حياه": 2056,
      "##قال": 2057,
      "ثاني": 2058,
      "##وصل": 2059,
      "عدد": 2060,
      "التعلي": 2061,
      "##صرف": 2062,
      "السيا": 2063,
      "##يران": 2064,
      "##جاه": 2065,
      "طلع": 2066,
      "اتكلم": 2067,
      "##هد": 2068,
      "السنه": 2069,
      "بقا": 2070,
      "يشوف": 2071,
      "وط": 2072,
      "##داد": 2073,
      "سيد": 2074,
      "##واصل": 2075,
      "حا": 2076,
      "موجوده": 2077,
      "اعتقد": 2078,
      "كث": 2079,
      "عمري": 2080,
      "بيكون": 2081,
      "دائ": 2082,
      "مغ": 2083,
      "اتمني": 2084,
      "اكل": 2085,
      "ملحد": 2086,
      "كما": 2087,
      "فم": 2088,
      "بالس": 2089,
      "صل": 2090,
      "الحمدلله": 2091,
      "##ضيه": 2092,
      "باب": 2093,
      "معي": 2094,
      "تروح": 2095,
      "##حر": 2096,
      "ذي": 2097,
      "الحكومه": 2098,
      "مض": 2099,
      "عملت": 2100,
      "عارفه": 2101,
      "وار": 2102,
      "ليها": 2103,
      "##ركز": 2104,
      "ماشي": 2105,
      "باس": 2106,
      "مافي": 2107,
      "##شره": 2108,
      "الجيش": 2109,
      "##ثل": 2110,
      "يلي": 2111,
      "##وظ": 2112,
      "بعرف": 2113,
      "واللي": 2114,
      "##نسي": 2115,
      "لنفس": 2116,
      "الست": 2117,
      "يعت": 2118,
      "لكل": 2119,
      "مستحيل": 2120,
      "الطبي": 2121,
      "##احيه": 2122,
      "##سات": 2123,
      "طوي": 2124,
      "طريق": 2125,
      "اختي": 2126,
      "عدم": 2127,
      "##الات": 2128,
      "وده": 2129,
      "جزء": 2130,
      "##خرج": 2131,
      "سوي": 2132,
      "الجامعه": 2133,
      "ثانيه": 2134,
      "وهذا": 2135,
      "قب": 2136,
      "##سيت": 2137,
      "اض": 2138,
      "شبه": 2139,
      "##نو": 2140,
      "##عين": 2141,
      "اط": 2142,
      "مرات": 2143,
      "الفت": 2144,
      "العظيم": 2145,
      "##لفه": 2146,
      "##غفر": 2147,
      "##رضي": 2148,
      "##يين": 2149,
      "معت": 2150,
      "##لاء": 2151,
      "اشياء": 2152,
      "##خلف": 2153,
      "بغ": 2154,
      "الحقيقه": 2155,
      "المسي": 2156,
      "قادر": 2157,
      "##ريت": 2158,
      "قر": 2159,
      "##تكون": 2160,
      "##زا": 2161,
      "##قم": 2162,
      "صراحه": 2163,
      "##رس": 2164,
      "عالم": 2165,
      "تعت": 2166,
      "رس": 2167,
      "بحب": 2168,
      "مرا": 2169,
      "##ارس": 2170,
      "امي": 2171,
      "رم": 2172,
      "##ومه": 2173,
      "جديده": 2174,
      "يسط": 2175,
      "فشخ": 2176,
      "##شف": 2177,
      "النا": 2178,
      "بير": 2179,
      "##قين": 2180,
      "النبي": 2181,
      "كويسه": 2182,
      "الصراحه": 2183,
      "##وريه": 2184,
      "حاله": 2185,
      "وبعدين": 2186,
      "كامل": 2187,
      "##سبب": 2188,
      "##ولها": 2189,
      "ادم": 2190,
      "الاد": 2191,
      "##ديك": 2192,
      "##رحله": 2193,
      "##جن": 2194,
      "الاقل": 2195,
      "تما": 2196,
      "##حده": 2197,
      "تحس": 2198,
      "باقي": 2199,
      "##لاقات": 2200,
      "بز": 2201,
      "##ولد": 2202,
      "اسمها": 2203,
      "بيا": 2204,
      "بردو": 2205,
      "بحي": 2206,
      "كا": 2207,
      "دليل": 2208,
      "##لامه": 2209,
      "زوج": 2210,
      "الشغل": 2211,
      "##حل": 2212,
      "وجهه": 2213,
      "جام": 2214,
      "الاف": 2215,
      "الراجل": 2216,
      "##نك": 2217,
      "تي": 2218,
      "عربي": 2219,
      "الواقع": 2220,
      "##صلح": 2221,
      "والد": 2222,
      "معاها": 2223,
      "مان": 2224,
      "حول": 2225,
      "##تا": 2226,
      "والش": 2227,
      "##ائل": 2228,
      "##تو": 2229,
      "باش": 2230,
      "بتق": 2231,
      "انما": 2232,
      "حك": 2233,
      "##ميع": 2234,
      "خد": 2235,
      "##افظ": 2236,
      "معينه": 2237,
      "افك": 2238,
      "خاصه": 2239,
      "رغم": 2240,
      "واي": 2241,
      "المل": 2242,
      "##ميل": 2243,
      "##يرا": 2244,
      "##بين": 2245,
      "##لاقه": 2246,
      "وجه": 2247,
      "##بدا": 2248,
      "##رحم": 2249,
      "اخذ": 2250,
      "##تكم": 2251,
      "يل": 2252,
      "ليك": 2253,
      "رو": 2254,
      "لدرجه": 2255,
      "##لس": 2256,
      "بوست": 2257,
      "##زن": 2258,
      "##لومات": 2259,
      "##درسه": 2260,
      "##بيع": 2261,
      "تفكير": 2262,
      "قولت": 2263,
      "##اعر": 2264,
      "##قتصاد": 2265,
      "لانك": 2266,
      "##ظن": 2267,
      "والي": 2268,
      "جه": 2269,
      "##والي": 2270,
      "الاي": 2271,
      "##طيه": 2272,
      "كتاب": 2273,
      "غيره": 2274,
      "ماع": 2275,
      "##ونا": 2276,
      "كون": 2277,
      "اهلي": 2278,
      "##ثي": 2279,
      "سبحان": 2280,
      "مهما": 2281,
      "ومت": 2282,
      "قريب": 2283,
      "وقتها": 2284,
      "مصري": 2285,
      "لغ": 2286,
      "الاص": 2287,
      "اسمع": 2288,
      "##اذ": 2289,
      "##حم": 2290,
      "التج": 2291,
      "##وائ": 2292,
      "##تني": 2293,
      "##بلغ": 2294,
      "مشكل": 2295,
      "نظام": 2296,
      "حما": 2297,
      "##ومي": 2298,
      "معظم": 2299,
      "تطلع": 2300,
      "##ريك": 2301,
      "##ومنت": 2302,
      "##لاف": 2303,
      "تغير": 2304,
      "##ايل": 2305,
      "ريديت": 2306,
      "##ايفه": 2307,
      "بحس": 2308,
      "يسطا": 2309,
      "تماما": 2310,
      "##ينك": 2311,
      "دماغ": 2312,
      "حر": 2313,
      "العربي": 2314,
      "خلال": 2315,
      "ديه": 2316,
      "تاريخ": 2317,
      "جوا": 2318,
      "##فعش": 2319,
      "تاخ": 2320,
      "سب": 2321,
      "موقف": 2322,
      "النظام": 2323,
      "مبا": 2324,
      "غزه": 2325,
      "سيدنا": 2326,
      "##لاد": 2327,
      "العالمين": 2328,
      "##اهره": 2329,
      "اصح": 2330,
      "كلامي": 2331,
      "##صار": 2332,
      "قي": 2333,
      "تمام": 2334,
      "صاحب": 2335,
      "المخ": 2336,
      "خي": 2337,
      "لنا": 2338,
      "الاردن": 2339,
      "##قوا": 2340,
      "##ثبت": 2341,
      "##رعه": 2342,
      "العب": 2343,
      "الاساس": 2344,
      "بالعكس": 2345,
      "معه": 2346,
      "##منع": 2347,
      "بدك": 2348,
      "غريب": 2349,
      "##يز": 2350,
      "نز": 2351,
      "##كري": 2352,
      "الاحت": 2353,
      "لع": 2354,
      "الكب": 2355,
      "##قدم": 2356,
      "صب": 2357,
      "مف": 2358,
      "الصلاه": 2359,
      "الرسول": 2360,
      "##ضرتك": 2361,
      "##لبس": 2362,
      "شف": 2363,
      "راجل": 2364,
      "ممت": 2365,
      "هتلاقي": 2366,
      "اسال": 2367,
      "معني": 2368,
      "بطريقه": 2369,
      "ير": 2370,
      "اخري": 2371,
      "حاب": 2372,
      "مختلف": 2373,
      "جميع": 2374,
      "الخير": 2375,
      "واست": 2376,
      "مختلفه": 2377,
      "##لوك": 2378,
      "كتب": 2379,
      "##دات": 2380,
      "اسبوع": 2381,
      "حقيقي": 2382,
      "الوحيد": 2383,
      "##تيجه": 2384,
      "وض": 2385,
      "صف": 2386,
      "##لال": 2387,
      "##دري": 2388,
      "الفيديو": 2389,
      "تلاقي": 2390,
      "رسول": 2391,
      "صارت": 2392,
      "##روع": 2393,
      "حكم": 2394,
      "##يبه": 2395,
      "نش": 2396,
      "ودي": 2397,
      "دم": 2398,
      "مقت": 2399,
      "كن": 2400,
      "نصيحه": 2401,
      "ارض": 2402,
      "##ليا": 2403,
      "بج": 2404,
      "اشتغل": 2405,
      "خلص": 2406,
      "بعيد": 2407,
      "تتكلم": 2408,
      "يوف": 2409,
      "حاسس": 2410,
      "##لق": 2411,
      "الرجال": 2412,
      "مار": 2413,
      "للش": 2414,
      "حرب": 2415,
      "##ظبط": 2416,
      "##تمام": 2417,
      "وضع": 2418,
      "كانو": 2419,
      "##طبي": 2420,
      "##بس": 2421,
      "الخط": 2422,
      "شخصيه": 2423,
      "امين": 2424,
      "واق": 2425,
      "وتح": 2426,
      "فلا": 2427,
      "قلب": 2428,
      "##اتهم": 2429,
      "واب": 2430,
      "##شل": 2431,
      "##قطع": 2432,
      "لقيت": 2433,
      "شئ": 2434,
      "وير": 2435,
      "امر": 2436,
      "دكتور": 2437,
      "اهلك": 2438,
      "##ختلف": 2439,
      "تعب": 2440,
      "##لوه": 2441,
      "يتم": 2442,
      "هد": 2443,
      "صور": 2444,
      "شخصي": 2445,
      "كنا": 2446,
      "##وانين": 2447,
      "مسي": 2448,
      "##امي": 2449,
      "بعي": 2450,
      "تعالي": 2451,
      "اروح": 2452,
      "برضه": 2453,
      "نب": 2454,
      "الشع": 2455,
      "##فرج": 2456,
      "داخل": 2457,
      "##ديوه": 2458,
      "لش": 2459,
      "معين": 2460,
      "العم": 2461,
      "الكت": 2462,
      "الغرب": 2463,
      "الاه": 2464,
      "الامور": 2465,
      "تعلم": 2466,
      "العراق": 2467,
      "الجنه": 2468,
      "الفر": 2469,
      "ساعات": 2470,
      "لكم": 2471,
      "معرفش": 2472,
      "هيا": 2473,
      "اخو": 2474,
      "اصل": 2475,
      "صغيره": 2476,
      "الحرب": 2477,
      "والن": 2478,
      "طالما": 2479,
      "يعم": 2480,
      "##اعه": 2481,
      "الشخصيه": 2482,
      "عامه": 2483,
      "واش": 2484,
      "سمعت": 2485,
      "دخلت": 2486,
      "عاج": 2487,
      "فات": 2488,
      "فرق": 2489,
      "##اريه": 2490,
      "##رفض": 2491,
      "اساسا": 2492,
      "المث": 2493,
      "ناحيه": 2494,
      "المحت": 2495,
      "وبال": 2496,
      "لد": 2497,
      "##ناقش": 2498,
      "تز": 2499,
      "خلق": 2500,
      "نج": 2501,
      "نعم": 2502,
      "قوي": 2503,
      "وحتي": 2504,
      "مكت": 2505,
      "الحاجات": 2506,
      "قالت": 2507,
      "يتكلم": 2508,
      "الشارع": 2509,
      "هيبقي": 2510,
      "##زمه": 2511,
      "الحين": 2512,
      "بيد": 2513,
      "##ريض": 2514,
      "يخلي": 2515,
      "##اضي": 2516,
      "##حين": 2517,
      "العن": 2518,
      "قط": 2519,
      "لق": 2520,
      "##طبق": 2521,
      "##وير": 2522,
      "الطب": 2523,
      "اللغه": 2524,
      "طلعت": 2525,
      "المق": 2526,
      "دائما": 2527,
      "##ظيفه": 2528,
      "##رحمه": 2529,
      "المصريين": 2530,
      "##اخر": 2531,
      "##رفه": 2532,
      "تصير": 2533,
      "الال": 2534,
      "منا": 2535,
      "##ئيس": 2536,
      "السؤال": 2537,
      "الدا": 2538,
      "##حدث": 2539,
      "تخلي": 2540,
      "بتكون": 2541,
      "##ثق": 2542,
      "مدري": 2543,
      "اخي": 2544,
      "##نتين": 2545,
      "الرجل": 2546,
      "عامل": 2547,
      "زيك": 2548,
      "متح": 2549,
      "##جليزي": 2550,
      "الحديث": 2551,
      "##ذات": 2552,
      "معهم": 2553,
      "##يت": 2554,
      "اقرا": 2555,
      "فرصه": 2556,
      "##فكير": 2557,
      "الاغ": 2558,
      "سال": 2559,
      "فيديو": 2560,
      "الثاني": 2561,
      "ملك": 2562,
      "الشباب": 2563,
      "ايضا": 2564,
      "##فو": 2565,
      "الرياض": 2566,
      "يتح": 2567,
      "##ظهر": 2568,
      "يحب": 2569,
      "##عاده": 2570,
      "ثانيا": 2571,
      "العق": 2572,
      "التاريخ": 2573,
      "##راك": 2574,
      "ولد": 2575,
      "تفهم": 2576,
      "تدخل": 2577,
      "للي": 2578,
      "حضرتك": 2579,
      "بتكلم": 2580,
      "فاكر": 2581,
      "##قاط": 2582,
      "اقت": 2583,
      "##الها": 2584,
      "##ابات": 2585,
      "فض": 2586,
      "للع": 2587,
      "الكون": 2588,
      "##طيك": 2589,
      "بيش": 2590,
      "ابت": 2591,
      "لات": 2592,
      "اتح": 2593,
      "بيعمل": 2594,
      "رمضان": 2595,
      "##عدي": 2596,
      "لسا": 2597,
      "الامر": 2598,
      "مهتم": 2599,
      "##حبه": 2600,
      "عكس": 2601,
      "المط": 2602,
      "الحس": 2603,
      "وخلاص": 2604,
      "##ادر": 2605,
      "انس": 2606,
      "اسلام": 2607,
      "تجيب": 2608,
      "##لوش": 2609,
      "ولما": 2610,
      "ليا": 2611,
      "##كنت": 2612,
      "المغ": 2613,
      "##ختار": 2614,
      "السيسي": 2615,
      "##هاب": 2616,
      "نقطه": 2617,
      "##مم": 2618,
      "##شفي": 2619,
      "##ذف": 2620,
      "جماعه": 2621,
      "اذ": 2622,
      "##ليها": 2623,
      "ارب": 2624,
      "تض": 2625,
      "##وام": 2626,
      "زياده": 2627,
      "##ونس": 2628,
      "##طان": 2629,
      "الاشياء": 2630,
      "وكم": 2631,
      "نسبه": 2632,
      "##عرفش": 2633,
      "الدرا": 2634,
      "قتل": 2635,
      "##واب": 2636,
      "##جيه": 2637,
      "##اقه": 2638,
      "##فسير": 2639,
      "حكي": 2640,
      "صوره": 2641,
      "جاب": 2642,
      "##لهاش": 2643,
      "النساء": 2644,
      "امك": 2645,
      "السعودي": 2646,
      "بف": 2647,
      "افهم": 2648,
      "##لطه": 2649,
      "بالض": 2650,
      "##وتيوب": 2651,
      "عرفت": 2652,
      "ينت": 2653,
      "##ابي": 2654,
      "##اهر": 2655,
      "والب": 2656,
      "ثق": 2657,
      "عنهم": 2658,
      "##فعل": 2659,
      "الحي": 2660,
      "الفلوس": 2661,
      "##وسط": 2662,
      "بشوف": 2663,
      "شاف": 2664,
      "الصب": 2665,
      "نظر": 2666,
      "##قيم": 2667,
      "دون": 2668,
      "##ليات": 2669,
      "##لاث": 2670,
      "ارت": 2671,
      "عنا": 2672,
      "اجمع": 2673,
      "##ينات": 2674,
      "##طقه": 2675,
      "##جاز": 2676,
      "لانهم": 2677,
      "##رمه": 2678,
      "فعل": 2679,
      "فار": 2680,
      "##واء": 2681,
      "ايا": 2682,
      "##اطر": 2683,
      "##فاع": 2684,
      "بني": 2685,
      "##هار": 2686,
      "##كال": 2687,
      "##يييي": 2688,
      "##رفين": 2689,
      "يروح": 2690,
      "الجزائر": 2691,
      "رجل": 2692,
      "لانو": 2693,
      "قلي": 2694,
      "بتحب": 2695,
      "شركه": 2696,
      "والك": 2697,
      "معند": 2698,
      "##خيل": 2699,
      "جامعه": 2700,
      "تتح": 2701,
      "##عاء": 2702,
      "بتش": 2703,
      "##ناها": 2704,
      "##قولك": 2705,
      "الملك": 2706,
      "الانت": 2707,
      "##سطيني": 2708,
      "صعبه": 2709,
      "طلب": 2710,
      "جم": 2711,
      "يعتبر": 2712,
      "##تكر": 2713,
      "##لش": 2714,
      "لاح": 2715,
      "الاطفال": 2716,
      "##شن": 2717,
      "درج": 2718,
      "##اريت": 2719,
      "##قلب": 2720,
      "##ؤول": 2721,
      "رك": 2722,
      "##صف": 2723,
      "عائ": 2724,
      "قعد": 2725,
      "عارفين": 2726,
      "تصرف": 2727,
      "##صور": 2728,
      "##بيل": 2729,
      "##وخ": 2730,
      "نع": 2731,
      "##ودي": 2732,
      "الملحد": 2733,
      "##مشي": 2734,
      "سنوات": 2735,
      "جميل": 2736,
      "اتوقع": 2737,
      "##امله": 2738,
      "##ديوهات": 2739,
      "##برر": 2740,
      "خارج": 2741,
      "العي": 2742,
      "بيحصل": 2743,
      "##هاد": 2744,
      "اطلع": 2745,
      "وممكن": 2746,
      "خايف": 2747,
      "النظر": 2748,
      "بكون": 2749,
      "##هاش": 2750,
      "بالي": 2751,
      "سلام": 2752,
      "بسيط": 2753,
      "جن": 2754,
      "الاجتما": 2755,
      "المكان": 2756,
      "لس": 2757,
      "حت": 2758,
      "##وجد": 2759,
      "صد": 2760,
      "الاق": 2761,
      "##كتير": 2762,
      "ولاد": 2763,
      "ويا": 2764,
      "بره": 2765,
      "تنت": 2766,
      "##سيب": 2767,
      "ارجع": 2768,
      "عربيه": 2769,
      "##راد": 2770,
      "سهل": 2771,
      "اجتما": 2772,
      "واه": 2773,
      "##وهم": 2774,
      "بتاعت": 2775,
      "قوه": 2776,
      "تكلم": 2777,
      "الخلي": 2778,
      "بتن": 2779,
      "##ونها": 2780,
      "##روبا": 2781,
      "وبين": 2782,
      "رقم": 2783,
      "##دايه": 2784,
      "شباب": 2785,
      "تجربه": 2786,
      "بيبقي": 2787,
      "فما": 2788,
      "عنك": 2789,
      "فهو": 2790,
      "المغرب": 2791,
      "قصه": 2792,
      "##رص": 2793,
      "شخصيا": 2794,
      "نحن": 2795,
      "##فين": 2796,
      "اليهود": 2797,
      "صوت": 2798,
      "تحب": 2799,
      "وسط": 2800,
      "حط": 2801,
      "##لل": 2802,
      "##ونك": 2803,
      "الحب": 2804,
      "##شور": 2805,
      "##طره": 2806,
      "اشتري": 2807,
      "قصدي": 2808,
      "##لومه": 2809,
      "انتا": 2810,
      "##رع": 2811,
      "التاني": 2812,
      "المنا": 2813,
      "##ولار": 2814,
      "حته": 2815,
      "والخ": 2816,
      "نفسهم": 2817,
      "جنيه": 2818,
      "الفرق": 2819,
      "حقوق": 2820,
      "الحاجه": 2821,
      "لين": 2822,
      "اعلي": 2823,
      "ارد": 2824,
      "فب": 2825,
      "عمره": 2826,
      "ودا": 2827,
      "احي": 2828,
      "محترم": 2829,
      "الشيء": 2830,
      "الاولي": 2831,
      "مسلمين": 2832,
      "اعلم": 2833,
      "التع": 2834,
      "##هاده": 2835,
      "الذين": 2836,
      "للب": 2837,
      "مينفعش": 2838,
      "كثيره": 2839,
      "##ائي": 2840,
      "##الج": 2841,
      "تقولي": 2842,
      "##غيير": 2843,
      "عش": 2844,
      "##رفع": 2845,
      "ادري": 2846,
      "##ميز": 2847,
      "دخ": 2848,
      "هيكون": 2849,
      "يز": 2850,
      "لج": 2851,
      "##حته": 2852,
      "##قطه": 2853,
      "بالج": 2854,
      "##فرق": 2855,
      "للج": 2856,
      "بيب": 2857,
      "عايشين": 2858,
      "احمد": 2859,
      "##ديمه": 2860,
      "##فون": 2861,
      "بسيطه": 2862,
      "##وفيق": 2863,
      "##ضاء": 2864,
      "##صري": 2865,
      "امه": 2866,
      "##قق": 2867,
      "##يري": 2868,
      "يغ": 2869,
      "وغ": 2870,
      "##دافع": 2871,
      "##راب": 2872,
      "##كيف": 2873,
      "البا": 2874,
      "##سس": 2875,
      "بقيت": 2876,
      "##راهيم": 2877,
      "ترجع": 2878,
      "##جح": 2879,
      "##راف": 2880,
      "النت": 2881,
      "جنس": 2882,
      "##كك": 2883,
      "للس": 2884,
      "اطفال": 2885,
      "ني": 2886,
      "تعيش": 2887,
      "قانون": 2888,
      "رجال": 2889,
      "مسا": 2890,
      "بتعمل": 2891,
      "عد": 2892,
      "القانون": 2893,
      "رايك": 2894,
      "##باط": 2895,
      "تسوي": 2896,
      "المنت": 2897,
      "ساعتها": 2898,
      "يجيب": 2899,
      "##ربنا": 2900,
      "##ولك": 2901,
      "##كات": 2902,
      "##حات": 2903,
      "الحقي": 2904,
      "تجي": 2905,
      "تطبي": 2906,
      "يط": 2907,
      "##واع": 2908,
      "حريه": 2909,
      "منطقي": 2910,
      "الحد": 2911,
      "تخيل": 2912,
      "بالق": 2913,
      "بالنسب": 2914,
      "##ريف": 2915,
      "يساعد": 2916,
      "مثال": 2917,
      "والص": 2918,
      "افكار": 2919,
      "تاخد": 2920,
      "النار": 2921,
      "حديث": 2922,
      "##سكر": 2923,
      "اتعلم": 2924,
      "ايران": 2925,
      "بار": 2926,
      "ويح": 2927,
      "تبي": 2928,
      "خاص": 2929,
      "يدخل": 2930,
      "##الهم": 2931,
      "##سمح": 2932,
      "بيع": 2933,
      "العلاقه": 2934,
      "##ئيه": 2935,
      "##ديان": 2936,
      "ملا": 2937,
      "ضعي": 2938,
      "صحاب": 2939,
      "عشر": 2940,
      "فاي": 2941,
      "شغال": 2942,
      "احلي": 2943,
      "##كذا": 2944,
      "الاك": 2945,
      "##ساطه": 2946,
      "بمع": 2947,
      "تري": 2948,
      "بيق": 2949,
      "وليس": 2950,
      "حدود": 2951,
      "قاعده": 2952,
      "النص": 2953,
      "يعيش": 2954,
      "##خلق": 2955,
      "ساب": 2956,
      "انش": 2957,
      "حياته": 2958,
      "المؤ": 2959,
      "اصحاب": 2960,
      "سعودي": 2961,
      "اون": 2962,
      "قليل": 2963,
      "##طلق": 2964,
      "ادخل": 2965,
      "##ئله": 2966,
      "مجال": 2967,
      "المه": 2968,
      "انصح": 2969,
      "الاغلب": 2970,
      "السوري": 2971,
      "طف": 2972,
      "الاكل": 2973,
      "عايزين": 2974,
      "##غر": 2975,
      "بو": 2976,
      "اكتش": 2977,
      "اخد": 2978,
      "مرض": 2979,
      "##زب": 2980,
      "صرت": 2981,
      "##فاء": 2982,
      "تفكر": 2983,
      "شهور": 2984,
      "##رائي": 2985,
      "نظري": 2986,
      "للناس": 2987,
      "بطل": 2988,
      "لغه": 2989,
      "اخلاق": 2990,
      "بدات": 2991,
      "##لون": 2992,
      "بام": 2993,
      "غريبه": 2994,
      "وام": 2995,
      "ويت": 2996,
      "ممن": 2997,
      "وتق": 2998,
      "الجواز": 2999,
      "##الث": 3000,
      "##وتر": 3001,
      "##خصوص": 3002,
      "نها": 3003,
      "وبارك": 3004,
      "ملهاش": 3005,
      "ماشاء": 3006,
      "فن": 3007,
      "موقع": 3008,
      "الاله": 3009,
      "وبس": 3010,
      "انتم": 3011,
      "قلبي": 3012,
      "حسيت": 3013,
      "بري": 3014,
      "##ارض": 3015,
      "هتبقي": 3016,
      "وتت": 3017,
      "بلاش": 3018,
      "يرجع": 3019,
      "احيانا": 3020,
      "بكره": 3021,
      "فالم": 3022,
      "##حك": 3023,
      "بالد": 3024,
      "افكر": 3025,
      "##جتمع": 3026,
      "الاخت": 3027,
      "حالك": 3028,
      "بالا": 3029,
      "الرو": 3030,
      "امن": 3031,
      "##مين": 3032,
      "وصلت": 3033,
      "ضرب": 3034,
      "ليهم": 3035,
      "لاب": 3036,
      "واك": 3037,
      "در": 3038,
      "فح": 3039,
      "الغلط": 3040,
      "##اركه": 3041,
      "سنتين": 3042,
      "ههههه": 3043,
      "##فايه": 3044,
      "طويله": 3045,
      "جميله": 3046,
      "بالظبط": 3047,
      "اجمعين": 3048,
      "##اتها": 3049,
      "الاتنين": 3050,
      "بلاد": 3051,
      "قيمه": 3052,
      "رفض": 3053,
      "اقولك": 3054,
      "اللا": 3055,
      "##عوا": 3056,
      "##رير": 3057,
      "##نبي": 3058,
      "##ريمه": 3059,
      "التق": 3060,
      "امور": 3061,
      "معها": 3062,
      "##جرد": 3063,
      "لمن": 3064,
      "يجب": 3065,
      "##ادره": 3066,
      "باذن": 3067,
      "مؤمن": 3068,
      "مكنتش": 3069,
      "العام": 3070,
      "شا": 3071,
      "ماهو": 3072,
      "بدايه": 3073,
      "واض": 3074,
      "فش": 3075,
      "بينهم": 3076,
      "تغ": 3077,
      "عني": 3078,
      "شعور": 3079,
      "بتد": 3080,
      "بشر": 3081,
      "الغير": 3082,
      "الفتره": 3083,
      "احكي": 3084,
      "##تحان": 3085,
      "ثان": 3086,
      "##زين": 3087,
      "##ليم": 3088,
      "شايفه": 3089,
      "والج": 3090,
      "##حصل": 3091,
      "بقت": 3092,
      "##فار": 3093,
      "##حترم": 3094,
      "حسن": 3095,
      "الشيخ": 3096,
      "##هرب": 3097,
      "استخ": 3098,
      "انتو": 3099,
      "تجرب": 3100,
      "شرط": 3101,
      "هتت": 3102,
      "##فكار": 3103,
      "وقال": 3104,
      "##عرض": 3105,
      "ياريت": 3106,
      "##ذك": 3107,
      "جا": 3108,
      "معناه": 3109,
      "##خليه": 3110,
      "وشك": 3111,
      "##ادات": 3112,
      "حض": 3113,
      "عز": 3114,
      "الحك": 3115,
      "تحكي": 3116,
      "والان": 3117,
      "حوالي": 3118,
      "##وميه": 3119,
      "##واه": 3120,
      "##وين": 3121,
      "اسوي": 3122,
      "بيحب": 3123,
      "الحوار": 3124,
      "كامله": 3125,
      "فه": 3126,
      "يحفظ": 3127,
      "##وجيه": 3128,
      "مصدر": 3129,
      "بيك": 3130,
      "اظن": 3131,
      "##ريعه": 3132,
      "الصوره": 3133,
      "عالي": 3134,
      "الاسلاميه": 3135,
      "حماس": 3136,
      "##زيه": 3137,
      "حابب": 3138,
      "والق": 3139,
      "قرار": 3140,
      "نفسيه": 3141,
      "##كيد": 3142,
      "تشتغل": 3143,
      "وكمان": 3144,
      "استغفر": 3145,
      "##نامج": 3146,
      "وعد": 3147,
      "عمرك": 3148,
      "##ولهم": 3149,
      "##صاب": 3150,
      "##بان": 3151,
      "عباره": 3152,
      "جس": 3153,
      "اخوان": 3154,
      "رايي": 3155,
      "##قلت": 3156,
      "مبت": 3157,
      "هون": 3158,
      "##خخخخ": 3159,
      "##ابعه": 3160,
      "الثانيه": 3161,
      "##نديش": 3162,
      "ريا": 3163,
      "خرا": 3164,
      "افت": 3165,
      "##قته": 3166,
      "اتفق": 3167,
      "##ناق": 3168,
      "سه": 3169,
      "لوحد": 3170,
      "##ظمه": 3171,
      "بيست": 3172,
      "##ین": 3173,
      "بالان": 3174,
      "النوع": 3175,
      "##ويت": 3176,
      "تاخذ": 3177,
      "##ايب": 3178,
      "بيتكلم": 3179,
      "##ارنه": 3180,
      "محتاجه": 3181,
      "عيب": 3182,
      "##واحد": 3183,
      "##ئاب": 3184,
      "اوروبا": 3185,
      "يض": 3186,
      "الحكم": 3187,
      "بحاول": 3188,
      "وفيه": 3189,
      "بتتكلم": 3190,
      "كميه": 3191,
      "##عمله": 3192,
      "ينفع": 3193,
      "ياخي": 3194,
      "الصحي": 3195,
      "##كش": 3196,
      "اكت": 3197,
      "##ورد": 3198,
      "سلم": 3199,
      "##اق": 3200,
      "##سال": 3201,
      "ايوه": 3202,
      "جبت": 3203,
      "الاخوان": 3204,
      "مكنش": 3205,
      "##ويل": 3206,
      "التانيه": 3207,
      "بسرعه": 3208,
      "زواج": 3209,
      "##ذهب": 3210,
      "احا": 3211,
      "اكتب": 3212,
      "اجيب": 3213,
      "الجنسيه": 3214,
      "##كيل": 3215,
      "وتع": 3216,
      "##طيع": 3217,
      "حبيبي": 3218,
      "بناء": 3219,
      "##ونيه": 3220,
      "##صلي": 3221,
      "غيرك": 3222,
      "##جار": 3223,
      "ديني": 3224,
      "##وافق": 3225,
      "فق": 3226,
      "توصل": 3227,
      "الموت": 3228,
      "رحت": 3229,
      "سل": 3230,
      "تونس": 3231,
      "اقرب": 3232,
      "##قيق": 3233,
      "معلش": 3234,
      "##خب": 3235,
      "هيت": 3236,
      "انزل": 3237,
      "بالاس": 3238,
      "حيث": 3239,
      "##اديه": 3240,
      "الرس": 3241,
      "##بني": 3242,
      "ياخد": 3243,
      "اسباب": 3244,
      "تبع": 3245,
      "المصريه": 3246,
      "السن": 3247,
      "الرد": 3248,
      "التفكير": 3249,
      "عيش": 3250,
      "التعليم": 3251,
      "حاولت": 3252,
      "##ناسبه": 3253,
      "ميديا": 3254,
      "##لاين": 3255,
      "##الف": 3256,
      "مقتنع": 3257,
      "##اهد": 3258,
      "النفسيه": 3259,
      "الها": 3260,
      "##حس": 3261,
      "دعم": 3262,
      "##ينها": 3263,
      "##حن": 3264,
      "##ناش": 3265,
      "فلو": 3266,
      "سو": 3267,
      "كار": 3268,
      "الطريقه": 3269,
      "وعم": 3270,
      "نقول": 3271,
      "للن": 3272,
      "يفهم": 3273,
      "ببساطه": 3274,
      "وحش": 3275,
      "##ميم": 3276,
      "بالذات": 3277,
      "معلومات": 3278,
      "نشوف": 3279,
      "قدا": 3280,
      "الرجاله": 3281,
      "الموقف": 3282,
      "بلي": 3283,
      "مهمه": 3284,
      "سوره": 3285,
      "حوار": 3286,
      "مستوي": 3287,
      "عبي": 3288,
      "وصحبه": 3289,
      "الامارات": 3290,
      "مبس": 3291,
      "احتم": 3292,
      "دولار": 3293,
      "##طاء": 3294,
      "مهو": 3295,
      "كفايه": 3296,
      "مظ": 3297,
      "##ويتر": 3298,
      "بكتير": 3299,
      "خبره": 3300,
      "الخليج": 3301,
      "الايام": 3302,
      "بنفسك": 3303,
      "النقاش": 3304,
      "وكنت": 3305,
      "هات": 3306,
      "##ارن": 3307,
      "صاحبي": 3308,
      "صديقي": 3309,
      "##ذاكر": 3310,
      "ولم": 3311,
      "##هاز": 3312,
      "نقاش": 3313,
      "مبي": 3314,
      "يوفقك": 3315,
      "##نم": 3316,
      "ياخذ": 3317,
      "##اكم": 3318,
      "المنطقه": 3319,
      "فضل": 3320,
      "##ههه": 3321,
      "خليك": 3322,
      "##راءه": 3323,
      "##قرا": 3324,
      "##ذاب": 3325,
      "تعتبر": 3326,
      "##شخاص": 3327,
      "##فص": 3328,
      "##بتي": 3329,
      "كره": 3330,
      "نزل": 3331,
      "نفسيا": 3332,
      "للد": 3333,
      "##فتره": 3334,
      "بقدر": 3335,
      "الكتاب": 3336,
      "ضع": 3337,
      "وعي": 3338,
      "فقد": 3339,
      "شيخ": 3340,
      "الافضل": 3341,
      "الرق": 3342,
      "##ملك": 3343,
      "القد": 3344,
      "معتقد": 3345,
      "وهت": 3346,
      "##نن": 3347,
      "جنب": 3348,
      "الجام": 3349,
      "بالخ": 3350,
      "ارج": 3351,
      "##حيين": 3352,
      "##موح": 3353,
      "##فاق": 3354,
      "صدقني": 3355,
      "ابراهيم": 3356,
      "قله": 3357,
      "المشاكل": 3358,
      "##وفر": 3359,
      "##موت": 3360,
      "##عن": 3361,
      "الكليه": 3362,
      "##عان": 3363,
      "الكومنت": 3364,
      "##فقه": 3365,
      "حصلت": 3366,
      "الخاصه": 3367,
      "يبقا": 3368,
      "حقيقه": 3369,
      "هدف": 3370,
      "كلامه": 3371,
      "تحط": 3372,
      "##علق": 3373,
      "طفل": 3374,
      "العكس": 3375,
      "عيل": 3376,
      "الطبيعي": 3377,
      "الصغير": 3378,
      "اعم": 3379,
      "القر": 3380,
      "وسي": 3381,
      "تمشي": 3382,
      "بتعرف": 3383,
      "القصه": 3384,
      "واج": 3385,
      "تعم": 3386,
      "##شيل": 3387,
      "يحصل": 3388,
      "##نوب": 3389,
      "دار": 3390,
      "##وذ": 3391,
      "مما": 3392,
      "##ايم": 3393,
      "الاهل": 3394,
      "##وبي": 3395,
      "تخصص": 3396,
      "تفسير": 3397,
      "سيئه": 3398,
      "##ازه": 3399,
      "بغض": 3400,
      "المدرسه": 3401,
      "يقولك": 3402,
      "دايم": 3403,
      "##نيين": 3404,
      "والام": 3405,
      "##هابي": 3406,
      "##شيء": 3407,
      "صا": 3408,
      "عرب": 3409,
      "شكله": 3410,
      "##زع": 3411,
      "طالب": 3412,
      "ابقي": 3413,
      "برو": 3414,
      "دماغك": 3415,
      "##قاطع": 3416,
      "ترد": 3417,
      "اقوي": 3418,
      "##عته": 3419,
      "##غا": 3420,
      "وظ": 3421,
      "لذلك": 3422,
      "الايه": 3423,
      "الاديان": 3424,
      "##رامي": 3425,
      "كور": 3426,
      "##راج": 3427,
      "فهمت": 3428,
      "##كيه": 3429,
      "##نسا": 3430,
      "وقد": 3431,
      "دعوه": 3432,
      "##انين": 3433,
      "##اجر": 3434,
      "فينا": 3435,
      "يبي": 3436,
      "داع": 3437,
      "غيرها": 3438,
      "##طط": 3439,
      "الامن": 3440,
      "منين": 3441,
      "##واجه": 3442,
      "بالضبط": 3443,
      "##راع": 3444,
      "الدي": 3445,
      "ضي": 3446,
      "اشت": 3447,
      "الطريق": 3448,
      "القاهره": 3449,
      "معنديش": 3450,
      "بحكي": 3451,
      "##دون": 3452,
      "##وطه": 3453,
      "وهل": 3454,
      "طبيعيه": 3455,
      "نست": 3456,
      "##فز": 3457,
      "ضرو": 3458,
      "وحي": 3459,
      "حم": 3460,
      "شكلك": 3461,
      "لبنان": 3462,
      "اهتمام": 3463,
      "فرض": 3464,
      "كمل": 3465,
      "##ندسه": 3466,
      "اماكن": 3467,
      "وبعدها": 3468,
      "جسم": 3469,
      "##سكري": 3470,
      "##عدل": 3471,
      "ايد": 3472,
      "اهلها": 3473,
      "##باء": 3474,
      "عين": 3475,
      "دام": 3476,
      "يحتاج": 3477,
      "اجل": 3478,
      "متاكد": 3479,
      "ثلاث": 3480,
      "##انيين": 3481,
      "##ائد": 3482,
      "##سد": 3483,
      "وعند": 3484,
      "بتبقي": 3485,
      "##الحاد": 3486,
      "المتح": 3487,
      "##يح": 3488,
      "الافكار": 3489,
      "قسم": 3490,
      "والناس": 3491,
      "ليست": 3492,
      "علاج": 3493,
      "النفسي": 3494,
      "##سين": 3495,
      "رغ": 3496,
      "مجه": 3497,
      "العمر": 3498,
      "مركز": 3499,
      "سعر": 3500,
      "سر": 3501,
      "فانت": 3502,
      "الاث": 3503,
      "##ناسب": 3504,
      "تطبيق": 3505,
      "الاخلاق": 3506,
      "الدراسه": 3507,
      "تخرج": 3508,
      "الوحيده": 3509,
      "عاليه": 3510,
      "مافيه": 3511,
      "##وجود": 3512,
      "اسهل": 3513,
      "ابحث": 3514,
      "##عتقد": 3515,
      "##حدد": 3516,
      "خبر": 3517,
      "قويه": 3518,
      "الاقتصاد": 3519,
      "حبيت": 3520,
      "ريال": 3521,
      "الحالي": 3522,
      "كش": 3523,
      "ابوك": 3524,
      "##ايد": 3525,
      "بتست": 3526,
      "##ابت": 3527,
      "يوجد": 3528,
      "حقك": 3529,
      "بتع": 3530,
      "نتيجه": 3531,
      "واقع": 3532,
      "##مك": 3533,
      "تحتاج": 3534,
      "##ابط": 3535,
      "جيش": 3536,
      "الشرق": 3537,
      "##روج": 3538,
      "##بلد": 3539,
      "نعرف": 3540,
      "##روس": 3541,
      "اصدق": 3542,
      "فجاه": 3543,
      "المب": 3544,
      "بعيدا": 3545,
      "متل": 3546,
      "الدكتور": 3547,
      "كبر": 3548,
      "##اث": 3549,
      "العلاقات": 3550,
      "##موعه": 3551,
      "زين": 3552,
      "لص": 3553,
      "السود": 3554,
      "يشتغل": 3555,
      "الصحه": 3556,
      "جل": 3557,
      "مشاعر": 3558,
      "##كاء": 3559,
      "وث": 3560,
      "##ید": 3561,
      "وعا": 3562,
      "##ويا": 3563,
      "##وووو": 3564,
      "المحتوي": 3565,
      "الهم": 3566,
      "قليله": 3567,
      "خلا": 3568,
      "جاه": 3569,
      "تقدم": 3570,
      "قام": 3571,
      "لقي": 3572,
      "يلا": 3573,
      "دق": 3574,
      "طويل": 3575,
      "يعلم": 3576,
      "لط": 3577,
      "بعمل": 3578,
      "نزلت": 3579,
      "يؤ": 3580,
      "##امين": 3581,
      "مشروع": 3582,
      "علمي": 3583,
      "##جره": 3584,
      "##سلمين": 3585,
      "تتعلم": 3586,
      "واحنا": 3587,
      "مشت": 3588,
      "قدم": 3589,
      "التس": 3590,
      "الاعت": 3591,
      "ياب": 3592,
      "النهايه": 3593,
      "بالموضوع": 3594,
      "جامد": 3595,
      "علاق": 3596,
      "##بقا": 3597,
      "الحاله": 3598,
      "مم": 3599,
      "شنو": 3600,
      "مناسب": 3601,
      "والف": 3602,
      "خطا": 3603,
      "وعاي": 3604,
      "خمس": 3605,
      "قالي": 3606,
      "اخوي": 3607,
      "##خاص": 3608,
      "وانه": 3609,
      "##اسي": 3610,
      "دينك": 3611,
      "##لاج": 3612,
      "جو": 3613,
      "مفت": 3614,
      "بالص": 3615,
      "##ريع": 3616,
      "متي": 3617,
      "اخوات": 3618,
      "سيب": 3619,
      "بمعني": 3620,
      "رجعت": 3621,
      "نك": 3622,
      "الجم": 3623,
      "الساعه": 3624,
      "جب": 3625,
      "##الغ": 3626,
      "العقل": 3627,
      "رئيس": 3628,
      "واد": 3629,
      "استخدم": 3630,
      "الشه": 3631,
      "انتوا": 3632,
      "##امن": 3633,
      "اليمن": 3634,
      "بفكر": 3635,
      "ولازم": 3636,
      "اهله": 3637,
      "##اوله": 3638,
      "عمي": 3639,
      "البدايه": 3640,
      "السو": 3641,
      "الفلسطيني": 3642,
      "اتجوز": 3643,
      "الباقي": 3644,
      "##عدك": 3645,
      "زعل": 3646,
      "فاضي": 3647,
      "بالف": 3648,
      "##ادل": 3649,
      "واضحه": 3650,
      "منطقه": 3651,
      "##وانات": 3652,
      "وظيفه": 3653,
      "می": 3654,
      "اولي": 3655,
      "##ئات": 3656,
      "خوف": 3657,
      "رحمه": 3658,
      "##ولو": 3659,
      "##ملكه": 3660,
      "واص": 3661,
      "بنس": 3662,
      "يكتب": 3663,
      "مفه": 3664,
      "الاسلامي": 3665,
      "جربت": 3666,
      "##حيم": 3667,
      "للان": 3668,
      "##نف": 3669,
      "المي": 3670,
      "اونلاين": 3671,
      "نف": 3672,
      "##عون": 3673,
      "يسوي": 3674,
      "عرض": 3675,
      "متع": 3676,
      "القي": 3677,
      "##زيز": 3678,
      "بحث": 3679,
      "تحاول": 3680,
      "كس": 3681,
      "الجديد": 3682,
      "وطب": 3683,
      "عيال": 3684,
      "بده": 3685,
      "بعت": 3686,
      "##اسه": 3687,
      "غبي": 3688,
      "##خاف": 3689,
      "دراسه": 3690,
      "الشهر": 3691,
      "النهار": 3692,
      "##ستان": 3693,
      "معناها": 3694,
      "محتوي": 3695,
      "##وث": 3696,
      "عقل": 3697,
      "##سميه": 3698,
      "##لوها": 3699,
      "فانا": 3700,
      "الحجاب": 3701,
      "##روط": 3702,
      "البحر": 3703,
      "بالط": 3704,
      "فرا": 3705,
      "##ليين": 3706,
      "##درات": 3707,
      "حلال": 3708,
      "برده": 3709,
      "ملوش": 3710,
      "حوال": 3711,
      "استث": 3712,
      "##داث": 3713,
      "لاحظ": 3714,
      "كليه": 3715,
      "تحي": 3716,
      "##ؤوليه": 3717,
      "انواع": 3718,
      "##زله": 3719,
      "تيجي": 3720,
      "ونفس": 3721,
      "بتس": 3722,
      "ماله": 3723,
      "اتنين": 3724,
      "الشركه": 3725,
      "ابوي": 3726,
      "بصير": 3727,
      "ربك": 3728,
      "درجه": 3729,
      "##باله": 3730,
      "##اسبه": 3731,
      "##صلحه": 3732,
      "ارا": 3733,
      "##احب": 3734,
      "راه": 3735,
      "لنفسك": 3736,
      "الشركات": 3737,
      "يرد": 3738,
      "واع": 3739,
      "للق": 3740,
      "علاقات": 3741,
      "المؤمن": 3742,
      "##ربت": 3743,
      "التص": 3744,
      "بالب": 3745,
      "مرحله": 3746,
      "تساعد": 3747,
      "معروف": 3748,
      "##هب": 3749,
      "وربنا": 3750,
      "تقرا": 3751,
      "شغله": 3752,
      "بيجي": 3753,
      "وعن": 3754,
      "ذنب": 3755,
      "تقعد": 3756,
      "البر": 3757,
      "امل": 3758,
      "##الفه": 3759,
      "جميعا": 3760,
      "##ارت": 3761,
      "خس": 3762,
      "تسال": 3763,
      "مدينه": 3764,
      "##زقك": 3765,
      "مالك": 3766,
      "رائ": 3767,
      "فس": 3768,
      "##حتي": 3769,
      "اذكر": 3770,
      "##رين": 3771,
      "توك": 3772,
      "معد": 3773,
      "شيئ": 3774,
      "##ليش": 3775,
      "##شق": 3776,
      "رضي": 3777,
      "حاط": 3778,
      "##اديث": 3779,
      "لف": 3780,
      "اقصد": 3781,
      "كاتب": 3782,
      "فاهمه": 3783,
      "يغير": 3784,
      "ومست": 3785,
      "خطوه": 3786,
      "تبدا": 3787,
      "##نون": 3788,
      "تقبل": 3789,
      "##وعي": 3790,
      "##ماكن": 3791,
      "قرا": 3792,
      "مقب": 3793,
      "بتاعه": 3794,
      "قولي": 3795,
      "الكريم": 3796,
      "##زر": 3797,
      "الملحدين": 3798,
      "##زز": 3799,
      "اقعد": 3800,
      "##حاول": 3801,
      "وكده": 3802,
      "بيهم": 3803,
      "ملاح": 3804,
      "##ياس": 3805,
      "لمده": 3806,
      "الزمن": 3807,
      "##ولين": 3808,
      "كانه": 3809,
      "##طفي": 3810,
      "احاول": 3811,
      "##ظلم": 3812,
      "لبس": 3813,
      "التن": 3814,
      "##امح": 3815,
      "ادع": 3816,
      "تزوج": 3817,
      "العل": 3818,
      "##قاطعه": 3819,
      "##شا": 3820,
      "اهو": 3821,
      "شب": 3822,
      "يومين": 3823,
      "##دير": 3824,
      "يوصل": 3825,
      "باله": 3826,
      "اعل": 3827,
      "##سهل": 3828,
      "##وديه": 3829,
      "##صيل": 3830,
      "نسب": 3831,
      "الحقيقي": 3832,
      "عط": 3833,
      "فتح": 3834,
      "بحاجه": 3835,
      "فكرت": 3836,
      "قناه": 3837,
      "القب": 3838,
      "تسمع": 3839,
      "نشر": 3840,
      "يرحم": 3841,
      "موظ": 3842,
      "هين": 3843,
      "الاجانب": 3844,
      "##احه": 3845,
      "عبر": 3846,
      "وبن": 3847,
      "والحمد": 3848,
      "##روه": 3849,
      "##نبيه": 3850,
      "سياره": 3851,
      "الوط": 3852,
      "قصدك": 3853,
      "ماب": 3854,
      "ويع": 3855,
      "مالي": 3856,
      "النوم": 3857,
      "اشخاص": 3858,
      "##قتها": 3859,
      "الاشخاص": 3860,
      "اسوء": 3861,
      "كف": 3862,
      "بالغ": 3863,
      "##وسي": 3864,
      "تاثير": 3865,
      "سيء": 3866,
      "##بيب": 3867,
      "فرص": 3868,
      "مرح": 3869,
      "##لبيه": 3870,
      "متش": 3871,
      "##حط": 3872,
      "وشكرا": 3873,
      "بارك": 3874,
      "اعط": 3875,
      "تنزل": 3876,
      "تعبت": 3877,
      "اعيش": 3878,
      "وحشه": 3879,
      "لازمه": 3880,
      "النقطه": 3881,
      "جاء": 3882,
      "فهي": 3883,
      "ضروري": 3884,
      "بقولك": 3885,
      "##روك": 3886,
      "عندما": 3887,
      "سين": 3888,
      "##هههههههههههههههههههههههههههههههه": 3889,
      "الجديده": 3890,
      "قيم": 3891,
      "عليكي": 3892,
      "##ارف": 3893,
      "مريض": 3894,
      "التواصل": 3895,
      "يقولون": 3896,
      "هتعرف": 3897,
      "امام": 3898,
      "##راقي": 3899,
      "الرح": 3900,
      "##دوا": 3901,
      "وكيف": 3902,
      "الاقي": 3903,
      "##هاينه": 3904,
      "اجي": 3905,
      "مقدر": 3906,
      "احساس": 3907,
      "الخي": 3908,
      "سؤ": 3909,
      "##كاتره": 3910,
      "##جوم": 3911,
      "مستقب": 3912,
      "منكم": 3913,
      "حاسه": 3914,
      "##ورت": 3915,
      "الثوره": 3916,
      "فعليا": 3917,
      "يحاول": 3918,
      "محل": 3919,
      "##واقع": 3920,
      "عمرها": 3921,
      "يحط": 3922,
      "واخد": 3923,
      "مقد": 3924,
      "نظره": 3925,
      "تويتر": 3926,
      "اقسم": 3927,
      "نهايه": 3928,
      "بهذا": 3929,
      "##عام": 3930,
      "يقل": 3931,
      "صاد": 3932,
      "الالحاد": 3933,
      "الامري": 3934,
      "##فعه": 3935,
      "##خليك": 3936,
      "للام": 3937,
      "خفي": 3938,
      "##لعب": 3939,
      "مباشره": 3940,
      "ثالث": 3941,
      "##صول": 3942,
      "نقص": 3943,
      "عندكم": 3944,
      "مساعده": 3945,
      "##خله": 3946,
      "##ريحه": 3947,
      "##اربه": 3948,
      "خرج": 3949,
      "قالوا": 3950,
      "يهم": 3951,
      "زاد": 3952,
      "طرف": 3953,
      "واجب": 3954,
      "##زواج": 3955,
      "مبسوط": 3956,
      "الولد": 3957,
      "خاط": 3958,
      "ضمن": 3959,
      "ويس": 3960,
      "يعطيك": 3961,
      "##فف": 3962,
      "الجميع": 3963,
      "ونص": 3964,
      "شوفت": 3965,
      "##ذاكره": 3966,
      "##قعد": 3967,
      "##نج": 3968,
      "##خان": 3969,
      "الوال": 3970,
      "انصحك": 3971,
      "عجب": 3972,
      "شركات": 3973,
      "فرح": 3974,
      "وشوف": 3975,
      "الخلا": 3976,
      "للو": 3977,
      "##حتك": 3978,
      "بحق": 3979,
      "مجموعه": 3980,
      "مقارنه": 3981,
      "الكلمه": 3982,
      "ذات": 3983,
      "الستات": 3984,
      "اسوا": 3985,
      "بست": 3986,
      "كال": 3987,
      "##متع": 3988,
      "تذكر": 3989,
      "##افي": 3990,
      "مكتوب": 3991,
      "##عده": 3992,
      "##قاب": 3993,
      "ينزل": 3994,
      "لعب": 3995,
      "بلغ": 3996,
      "##وضح": 3997,
      "وحد": 3998,
      "عمليه": 3999,
      "الاعلام": 4000,
      "احترام": 4001,
      "##ضب": 4002,
      "##ساب": 4003,
      "##كوا": 4004,
      "##اااااااا": 4005,
      "وطبعا": 4006,
      "دقيقه": 4007,
      "ههههههههه": 4008,
      "الشمس": 4009,
      "قضيه": 4010,
      "##رامه": 4011,
      "جال": 4012,
      "##افظه": 4013,
      "العامه": 4014,
      "كتبت": 4015,
      "هذ": 4016,
      "##ماع": 4017,
      "فخ": 4018,
      "يفكر": 4019,
      "الكثير": 4020,
      "حاولي": 4021,
      "##جيش": 4022,
      "##قتش": 4023,
      "تفاص": 4024,
      "بحيث": 4025,
      "مسل": 4026,
      "يحس": 4027,
      "##ائله": 4028,
      "سبيل": 4029,
      "تدور": 4030,
      "احتاج": 4031,
      "ادعي": 4032,
      "اقتصاد": 4033,
      "داعي": 4034,
      "##ضايق": 4035,
      "قوانين": 4036,
      "الشيطان": 4037,
      "اليوتيوب": 4038,
      "##اثر": 4039,
      "ثانوي": 4040,
      "القلب": 4041,
      "##ناكه": 4042,
      "العيال": 4043,
      "##شيال": 4044,
      "ظلم": 4045,
      "##قتصادي": 4046,
      "ويه": 4047,
      "واله": 4048,
      "##ضعف": 4049,
      "الاسرائي": 4050,
      "تجاه": 4051,
      "نعمل": 4052,
      "ونا": 4053,
      "رايح": 4054,
      "بينما": 4055,
      "شوفي": 4056,
      "شهاده": 4057,
      "فيديوهات": 4058,
      "استخدام": 4059,
      "قدامك": 4060,
      "ضعيف": 4061,
      "##ترنت": 4062,
      "##ناعه": 4063,
      "اسف": 4064,
      "##سكريه": 4065,
      "##دع": 4066,
      "##قاد": 4067,
      "صلاه": 4068,
      "لمجرد": 4069,
      "والاس": 4070,
      "الكم": 4071,
      "##ونات": 4072,
      "القط": 4073,
      "##جيل": 4074,
      "بخصوص": 4075,
      "سط": 4076,
      "قعدت": 4077,
      "##وعه": 4078,
      "دماغي": 4079,
      "##طيت": 4080,
      "ضغط": 4081,
      "مفروض": 4082,
      "محترمه": 4083,
      "اسلوب": 4084,
      "عندو": 4085,
      "##قوله": 4086,
      "جان": 4087,
      "##درك": 4088,
      "##عتبر": 4089,
      "الطفل": 4090,
      "##واعد": 4091,
      "فيني": 4092,
      "منظ": 4093,
      "##اردن": 4094,
      "كثيرا": 4095,
      "خذ": 4096,
      "عاديه": 4097,
      "يموت": 4098,
      "النظ": 4099,
      "جيت": 4100,
      "ممنوع": 4101,
      "لاكن": 4102,
      "بتاعك": 4103,
      "بالدين": 4104,
      "التعب": 4105,
      "وتك": 4106,
      "احتمال": 4107,
      "كذلك": 4108,
      "الحريه": 4109,
      "الايمان": 4110,
      "##خن": 4111,
      "##زام": 4112,
      "وكذا": 4113,
      "خيرا": 4114,
      "انجليزي": 4115,
      "كات": 4116,
      "##قاومه": 4117,
      "##اعم": 4118,
      "بنسبه": 4119,
      "##خدمه": 4120,
      "رجع": 4121,
      "ابعد": 4122,
      "فك": 4123,
      "##ميه": 4124,
      "مقابل": 4125,
      "القديمه": 4126,
      "##صص": 4127,
      "ساعد": 4128,
      "اختار": 4129,
      "الدعاء": 4130,
      "بياخد": 4131,
      "حلم": 4132,
      "المستقبل": 4133,
      "##ثله": 4134,
      "الخاص": 4135,
      "##فترض": 4136,
      "ويب": 4137,
      "##ويها": 4138,
      "لماذا": 4139,
      "الثق": 4140,
      "سير": 4141,
      "حياتهم": 4142,
      "الارد": 4143,
      "افتح": 4144,
      "##ستر": 4145,
      "##اتنا": 4146,
      "حالي": 4147,
      "معاي": 4148,
      "يزيد": 4149,
      "##سبوك": 4150,
      "##ولات": 4151,
      "ومحد": 4152,
      "حاج": 4153,
      "اكمل": 4154,
      "اريد": 4155,
      "هير": 4156,
      "##لاته": 4157,
      "##صيحه": 4158,
      "كلو": 4159,
      "سهله": 4160,
      "##فاظ": 4161,
      "##لاش": 4162,
      "##عمال": 4163,
      "حين": 4164,
      "##ااا": 4165,
      "##واد": 4166,
      "الهدف": 4167,
      "##فوا": 4168,
      "##كام": 4169,
      "الانس": 4170,
      "هتكون": 4171,
      "ممتاز": 4172,
      "حفظ": 4173,
      "##وته": 4174,
      "##قدرش": 4175,
      "##ناك": 4176,
      "ميت": 4177,
      "يرج": 4178,
      "ادي": 4179,
      "##ائيه": 4180,
      "استاذ": 4181,
      "حنا": 4182,
      "##جبه": 4183,
      "تحدي": 4184,
      "المجال": 4185,
      "الرب": 4186,
      "باخت": 4187,
      "الراي": 4188,
      "الكر": 4189,
      "نم": 4190,
      "ايمان": 4191,
      "مباشر": 4192,
      "حقيقيه": 4193,
      "موسي": 4194,
      "وتن": 4195,
      "##دمر": 4196,
      "لعبه": 4197,
      "سع": 4198,
      "بيس": 4199,
      "##غله": 4200,
      "الحال": 4201,
      "##طبخ": 4202,
      "التطبي": 4203,
      "##ثم": 4204,
      "ماراح": 4205,
      "ولله": 4206,
      "##ريج": 4207,
      "ويكون": 4208,
      "الصين": 4209,
      "وانتي": 4210,
      "صدا": 4211,
      "قالك": 4212,
      "مسيحي": 4213,
      "##اريع": 4214,
      "راحت": 4215,
      "الحض": 4216,
      "يبني": 4217,
      "ووا": 4218,
      "قلوب": 4219,
      "القرار": 4220,
      "قصص": 4221,
      "نض": 4222,
      "يسمع": 4223,
      "قررت": 4224,
      "يقولي": 4225,
      "السوق": 4226,
      "##فساد": 4227,
      "##حمه": 4228,
      "توص": 4229,
      "شعر": 4230,
      "نن": 4231,
      "الاز": 4232,
      "زمن": 4233,
      "##دها": 4234,
      "##وعب": 4235,
      "##هما": 4236,
      "##دمات": 4237,
      "مرتاح": 4238,
      "اجمل": 4239,
      "بحكم": 4240,
      "ياس": 4241,
      "عايشه": 4242,
      "##تيجي": 4243,
      "بتوع": 4244,
      "##ائق": 4245,
      "##كسر": 4246,
      "##ئل": 4247,
      "عص": 4248,
      "##روفه": 4249,
      "##خم": 4250,
      "متفق": 4251,
      "بسا": 4252,
      "##موع": 4253,
      "منطق": 4254,
      "انق": 4255,
      "الكي": 4256,
      "##لع": 4257,
      "منطقيه": 4258,
      "المره": 4259,
      "##ائده": 4260,
      "انته": 4261,
      "باست": 4262,
      "بحد": 4263,
      "##سخ": 4264,
      "كثر": 4265,
      "ضعف": 4266,
      "ونت": 4267,
      "##هور": 4268,
      "يمشي": 4269,
      "التش": 4270,
      "كلشي": 4271,
      "دينيه": 4272,
      "ماكان": 4273,
      "جنسيه": 4274,
      "زيه": 4275,
      "مدي": 4276,
      "تغيير": 4277,
      "مكانش": 4278,
      "التعليقات": 4279,
      "ديال": 4280,
      "##جاح": 4281,
      "بقالي": 4282,
      "قه": 4283,
      "التعامل": 4284,
      "##سفه": 4285,
      "تطور": 4286,
      "وتش": 4287,
      "##وبات": 4288,
      "وكانت": 4289,
      "المدينه": 4290,
      "المسيحيه": 4291,
      "##ياز": 4292,
      "الاسباب": 4293,
      "الزوج": 4294,
      "وغيره": 4295,
      "##لاقيه": 4296,
      "والاخ": 4297,
      "روحي": 4298,
      "##طرف": 4299,
      "اكتشفت": 4300,
      "ومفيش": 4301,
      "مسلمه": 4302,
      "الليل": 4303,
      "الشرطه": 4304,
      "صالح": 4305,
      "انفس": 4306,
      "القيا": 4307,
      "##ناقض": 4308,
      "بنا": 4309,
      "باسم": 4310,
      "ورحمه": 4311,
      "الباب": 4312,
      "منذ": 4313,
      "تسلم": 4314,
      "قري": 4315,
      "مشاع": 4316,
      "الشعوب": 4317,
      "##دريه": 4318,
      "كتيره": 4319,
      "##يع": 4320,
      "تحيه": 4321,
      "يحكي": 4322,
      "##حش": 4323,
      "بتشوف": 4324,
      "تحصل": 4325,
      "نعمه": 4326,
      "الدينيه": 4327,
      "عاش": 4328,
      "الاخري": 4329,
      "التحرش": 4330,
      "##لاك": 4331,
      "تتم": 4332,
      "##ابله": 4333,
      "شريك": 4334,
      "يعط": 4335,
      "الكبير": 4336,
      "مشان": 4337,
      "بدري": 4338,
      "الوطن": 4339,
      "ركز": 4340,
      "##فيده": 4341,
      "انكم": 4342,
      "##غلي": 4343,
      "تنا": 4344,
      "السياره": 4345,
      "قلبك": 4346,
      "##دمه": 4347,
      "ويقول": 4348,
      "ماهي": 4349,
      "##باده": 4350,
      "ناقص": 4351,
      "تجارب": 4352,
      "صحه": 4353,
      "ابغي": 4354,
      "نكون": 4355,
      "##ركب": 4356,
      "روا": 4357,
      "##صله": 4358,
      "عامله": 4359,
      "لبعض": 4360,
      "حركه": 4361,
      "استمر": 4362,
      "تكتب": 4363,
      "قادره": 4364,
      "##ساس": 4365,
      "حدث": 4366,
      "بتقدر": 4367,
      "موب": 4368,
      "التخصص": 4369,
      "تخلص": 4370,
      "البشريه": 4371,
      "غصب": 4372,
      "البلاد": 4373,
      "السنين": 4374,
      "سلاح": 4375,
      "يحت": 4376,
      "اين": 4377,
      "مراه": 4378,
      "المرت": 4379,
      "يكن": 4380,
      "مبلغ": 4381,
      "##صدق": 4382,
      "##راهيه": 4383,
      "القوانين": 4384,
      "##نعه": 4385,
      "ثقافه": 4386,
      "##اليد": 4387,
      "ادرس": 4388,
      "انام": 4389,
      "لحظه": 4390,
      "##يرات": 4391,
      "رايكم": 4392,
      "بيطلع": 4393,
      "تؤ": 4394,
      "اخوك": 4395,
      "تعليم": 4396,
      "الاجتماعيه": 4397,
      "الاجتماعي": 4398,
      "تفتح": 4399,
      "المعلومات": 4400,
      "العنصريه": 4401,
      "بالمع": 4402,
      "لاقي": 4403,
      "معلومه": 4404,
      "بالنسبالي": 4405,
      "اخويا": 4406,
      "شايفين": 4407,
      "الساب": 4408,
      "##فاد": 4409,
      "لاخ": 4410,
      "##كد": 4411,
      "يفتح": 4412,
      "نتكلم": 4413,
      "##حترام": 4414,
      "##عج": 4415,
      "تعدي": 4416,
      "ونعم": 4417,
      "المنطق": 4418,
      "تفاصيل": 4419,
      "فئه": 4420,
      "##مير": 4421,
      "جيل": 4422,
      "يمنع": 4423,
      "تقي": 4424,
      "سويت": 4425,
      "ادا": 4426,
      "##همش": 4427,
      "##تكي": 4428,
      "سعيد": 4429,
      "ابد": 4430,
      "##نيك": 4431,
      "##زال": 4432,
      "خدمه": 4433,
      "امشي": 4434,
      "فايده": 4435,
      "كومنت": 4436,
      "##ليهم": 4437,
      "حقه": 4438,
      "##حدي": 4439,
      "القه": 4440,
      "عقلي": 4441,
      "##ريكا": 4442,
      "افع": 4443,
      "تركيا": 4444,
      "##قام": 4445,
      "##فره": 4446,
      "##تمد": 4447,
      "##طار": 4448,
      "قدرت": 4449,
      "بض": 4450,
      "سوري": 4451,
      "معانا": 4452,
      "ماعند": 4453,
      "##بيا": 4454,
      "##عملها": 4455,
      "الاشي": 4456,
      "يسال": 4457,
      "عاده": 4458,
      "لول": 4459,
      "##غار": 4460,
      "برنامج": 4461,
      "الحرام": 4462,
      "##قاء": 4463,
      "##قو": 4464,
      "##مون": 4465,
      "ابويا": 4466,
      "وقتك": 4467,
      "##خش": 4468,
      "##تصاب": 4469,
      "عقلك": 4470,
      "الور": 4471,
      "##ناع": 4472,
      "البعض": 4473,
      "هالم": 4474,
      "##ئين": 4475,
      "##عتين": 4476,
      "تلك": 4477,
      "فيا": 4478,
      "احتيا": 4479,
      "وقف": 4480,
      "السفر": 4481,
      "والسلام": 4482,
      "طبيب": 4483,
      "التفا": 4484,
      "حج": 4485,
      "##ائن": 4486,
      "نقدر": 4487,
      "##همه": 4488,
      "سوء": 4489,
      "فرنسا": 4490,
      "هالشي": 4491,
      "سمع": 4492,
      "يتزوج": 4493,
      "جمال": 4494,
      "رساله": 4495,
      "بالتوفيق": 4496,
      "تتجوز": 4497,
      "باللي": 4498,
      "متب": 4499,
      "المسل": 4500,
      "مستعد": 4501,
      "##ناعي": 4502,
      "نبي": 4503,
      "بكثير": 4504,
      "يريد": 4505,
      "##عمه": 4506,
      "##هام": 4507,
      "التطور": 4508,
      "سبحانه": 4509,
      "سالت": 4510,
      "اختلاف": 4511,
      "الفق": 4512,
      "##خيص": 4513,
      "##جلس": 4514,
      "هلا": 4515,
      "##تت": 4516,
      "امت": 4517,
      "يقعد": 4518,
      "شقه": 4519,
      "وله": 4520,
      "##ريات": 4521,
      "هيج": 4522,
      "ند": 4523,
      "اثبت": 4524,
      "##فيها": 4525,
      "النهارده": 4526,
      "مرتين": 4527,
      "قريت": 4528,
      "كفر": 4529,
      "غالي": 4530,
      "بيعرف": 4531,
      "جاهل": 4532,
      "يصلح": 4533,
      "جواز": 4534,
      "كتر": 4535,
      "اتب": 4536,
      "مرتب": 4537,
      "ويش": 4538,
      "##يجي": 4539,
      "اربع": 4540,
      "مسؤ": 4541,
      "##تهي": 4542,
      "الوكيل": 4543,
      "تقوم": 4544,
      "كلش": 4545,
      "##كور": 4546,
      "واقف": 4547,
      "رؤ": 4548,
      "##حتها": 4549,
      "روس": 4550,
      "اوقات": 4551,
      "وناس": 4552,
      "بعضهم": 4553,
      "##وظف": 4554,
      "منع": 4555,
      "##ارين": 4556,
      "قدامي": 4557,
      "الخوف": 4558,
      "بالنهايه": 4559,
      "طي": 4560,
      "##طين": 4561,
      "وكدا": 4562,
      "هاذي": 4563,
      "اكو": 4564,
      "##فن": 4565,
      "##ورا": 4566,
      "هندسه": 4567,
      "ماسك": 4568,
      "الفعل": 4569,
      "الانترنت": 4570,
      "بينا": 4571,
      "##كمه": 4572,
      "شلون": 4573,
      "عقد": 4574,
      "تاع": 4575,
      "جده": 4576,
      "باع": 4577,
      "يفضل": 4578,
      "##رتاح": 4579,
      "##جابي": 4580,
      "##فله": 4581,
      "##ماغ": 4582,
      "حبه": 4583,
      "الامه": 4584,
      "مبدا": 4585,
      "شرح": 4586,
      "يثبت": 4587,
      "اختر": 4588,
      "مشكلتك": 4589,
      "صحابي": 4590,
      "بروح": 4591,
      "##عرفه": 4592,
      "##داف": 4593,
      "الزم": 4594,
      "عمال": 4595,
      "غيرهم": 4596,
      "الوحده": 4597,
      "سوق": 4598,
      "##التالي": 4599,
      "##ايح": 4600,
      "مبارك": 4601,
      "تمر": 4602,
      "القضيه": 4603,
      "لاه": 4604,
      "الفكر": 4605,
      "عاوزه": 4606,
      "##اليا": 4607,
      "كانك": 4608,
      "##افع": 4609,
      "وهكذا": 4610,
      "يطلب": 4611,
      "طالع": 4612,
      "ماشيه": 4613,
      "المك": 4614,
      "بيقولوا": 4615,
      "اغلبهم": 4616,
      "للاس": 4617,
      "العلماء": 4618,
      "مسموح": 4619,
      "وسخه": 4620,
      "الخرا": 4621,
      "خطر": 4622,
      "ميز": 4623,
      "خلصت": 4624,
      "الطرف": 4625,
      "##فسر": 4626,
      "##لتزم": 4627,
      "كريم": 4628,
      "السعوديين": 4629,
      "دينه": 4630,
      "بعده": 4631,
      "البحث": 4632,
      "عنصريه": 4633,
      "غلطان": 4634,
      "عوا": 4635,
      "يهد": 4636,
      "الصف": 4637,
      "افريق": 4638,
      "البن": 4639,
      "##مره": 4640,
      "بسه": 4641,
      "وهما": 4642,
      "المال": 4643,
      "المواضيع": 4644,
      "الغربيه": 4645,
      "##ستي": 4646,
      "ناج": 4647,
      "الهي": 4648,
      "نيك": 4649,
      "ومح": 4650,
      "عض": 4651,
      "الحر": 4652,
      "تشتري": 4653,
      "طرق": 4654,
      "قطع": 4655,
      "الحدود": 4656,
      "تلق": 4657,
      "حالات": 4658,
      "بضان": 4659,
      "الفلسطين": 4660,
      "الرحمن": 4661,
      "##ياب": 4662,
      "##شكله": 4663,
      "العافيه": 4664,
      "وغيرها": 4665,
      "لشخص": 4666,
      "##رامج": 4667,
      "##واك": 4668,
      "##اريف": 4669,
      "منشور": 4670,
      "احترامي": 4671,
      "يجوز": 4672,
      "الكبيره": 4673,
      "واني": 4674,
      "بابا": 4675,
      "##ركاته": 4676,
      "موجودين": 4677,
      "##جليزيه": 4678,
      "##روش": 4679,
      "مشي": 4680,
      "##وقت": 4681,
      "اشهر": 4682,
      "منو": 4683,
      "##رياض": 4684,
      "##سته": 4685,
      "قران": 4686,
      "اثر": 4687,
      "شاب": 4688,
      "بدو": 4689,
      "رجاله": 4690,
      "ادور": 4691,
      "##سح": 4692,
      "درس": 4693,
      "يتغير": 4694,
      "ارهابي": 4695,
      "##ولف": 4696,
      "##صرت": 4697,
      "مفكر": 4698,
      "##ائف": 4699,
      "تحياتي": 4700,
      "تبارك": 4701,
      "##نيش": 4702,
      "الخارج": 4703,
      "عج": 4704,
      "##الحه": 4705,
      "مواضيع": 4706,
      "##عدد": 4707,
      "المملكه": 4708,
      "##فيك": 4709,
      "مالها": 4710,
      "سكر": 4711,
      "امان": 4712,
      "##ولاد": 4713,
      "الصبح": 4714,
      "##فيدك": 4715,
      "متك": 4716,
      "يقتل": 4717,
      "الاخرين": 4718,
      "الشعر": 4719,
      "مرحبا": 4720,
      "##بو": 4721,
      "##غان": 4722,
      "اعرفه": 4723,
      "##اسيه": 4724,
      "##ملت": 4725,
      "بخير": 4726,
      "المعا": 4727,
      "الاور": 4728,
      "سام": 4729,
      "جت": 4730,
      "##بحث": 4731,
      "ثوره": 4732,
      "##ضن": 4733,
      "عمله": 4734,
      "##ائري": 4735,
      "يدفع": 4736,
      "الشكل": 4737,
      "السما": 4738,
      "الحلال": 4739,
      "##تحانات": 4740,
      "للك": 4741,
      "مبرر": 4742,
      "##بياء": 4743,
      "رده": 4744,
      "مشكلتي": 4745,
      "حذف": 4746,
      "##خابات": 4747,
      "قاعدين": 4748,
      "خاطر": 4749,
      "اسا": 4750,
      "##لوا": 4751,
      "صباح": 4752,
      "بتحكي": 4753,
      "بيحاول": 4754,
      "الاحتلال": 4755,
      "يكلم": 4756,
      "تبين": 4757,
      "مليار": 4758,
      "قرات": 4759,
      "جنسي": 4760,
      "باين": 4761,
      "بسم": 4762,
      "وبرض": 4763,
      "طبيعه": 4764,
      "تدفع": 4765,
      "##الع": 4766,
      "القيامه": 4767,
      "الشعور": 4768,
      "نسيت": 4769,
      "بيتك": 4770,
      "القتل": 4771,
      "##لاط": 4772,
      "تكمل": 4773,
      "اسعار": 4774,
      "عيد": 4775,
      "امتي": 4776,
      "لهذا": 4777,
      "اسئله": 4778,
      "تعال": 4779,
      "##ثره": 4780,
      "النتيجه": 4781,
      "القديم": 4782,
      "همه": 4783,
      "المانيا": 4784,
      "راضي": 4785,
      "ساكن": 4786,
      "مفهوم": 4787,
      "##رجل": 4788,
      "تاكل": 4789,
      "جايه": 4790,
      "حكيت": 4791,
      "واف": 4792,
      "تحكم": 4793,
      "مستشفي": 4794,
      "##قره": 4795,
      "بالفعل": 4796,
      "الصهاينه": 4797,
      "يوميا": 4798,
      "كر": 4799,
      "جيد": 4800,
      "##ئيا": 4801,
      "نبينا": 4802,
      "تعليق": 4803,
      "شهرين": 4804,
      "ادعولي": 4805,
      "تستخدم": 4806,
      "الظروف": 4807,
      "يبدا": 4808,
      "##ئك": 4809,
      "##اخير": 4810,
      "ماني": 4811,
      "تثبت": 4812,
      "##ربط": 4813,
      "فرع": 4814,
      "قطر": 4815,
      "ابسط": 4816,
      "##قيده": 4817,
      "##لنا": 4818,
      "لوحدي": 4819,
      "وبا": 4820,
      "صحيحه": 4821,
      "##هاجم": 4822,
      "فاس": 4823,
      "##ورو": 4824,
      "##حو": 4825,
      "##اهي": 4826,
      "##ثال": 4827,
      "الصدق": 4828,
      "مصادر": 4829,
      "##وبيا": 4830,
      "##كندريه": 4831,
      "انتبه": 4832,
      "لام": 4833,
      "المر": 4834,
      "##ايده": 4835,
      "والكلام": 4836,
      "اصعب": 4837,
      "تبر": 4838,
      "##رائم": 4839,
      "مواقع": 4840,
      "الاخيره": 4841,
      "للص": 4842,
      "موت": 4843,
      "الماضي": 4844,
      "##ادله": 4845,
      "الاسبوع": 4846,
      "حبيبتي": 4847,
      "ومو": 4848,
      "لوحده": 4849,
      "حزب": 4850,
      "##بتها": 4851,
      "ثقه": 4852,
      "سوال": 4853,
      "الجيل": 4854,
      "##ومات": 4855,
      "اجتماعي": 4856,
      "الشرع": 4857,
      "##كتئاب": 4858,
      "##قله": 4859,
      "بدها": 4860,
      "بتحصل": 4861,
      "الكهرب": 4862,
      "عيني": 4863,
      "الرساله": 4864,
      "بهال": 4865,
      "##ذج": 4866,
      "التو": 4867,
      "ناوي": 4868,
      "الديم": 4869,
      "العادي": 4870,
      "نور": 4871,
      "استح": 4872,
      "طيبه": 4873,
      "##امر": 4874,
      "لينا": 4875,
      "داعش": 4876,
      "##زو": 4877,
      "لاس": 4878,
      "نهائي": 4879,
      "اقدم": 4880,
      "انف": 4881,
      "وفع": 4882,
      "الشام": 4883,
      "##قرار": 4884,
      "##وكب": 4885,
      "انح": 4886,
      "بالاردن": 4887,
      "تتزوج": 4888,
      "الاسد": 4889,
      "##الته": 4890,
      "ماذا": 4891,
      "اختك": 4892,
      "##عبد": 4893,
      "ارحم": 4894,
      "قهوه": 4895,
      "##رمين": 4896,
      "ضح": 4897,
      "طائ": 4898,
      "هيحصل": 4899,
      "الوس": 4900,
      "##رفت": 4901,
      "عمان": 4902,
      "ياكل": 4903,
      "بتج": 4904,
      "اذن": 4905,
      "سكان": 4906,
      "فقال": 4907,
      "مده": 4908,
      "##ارد": 4909,
      "شكلها": 4910,
      "اشوفه": 4911,
      "بلدك": 4912,
      "عالا": 4913,
      "الاماكن": 4914,
      "##باقي": 4915,
      "يستحق": 4916,
      "وحاول": 4917,
      "##جون": 4918,
      "الترك": 4919,
      "ريت": 4920,
      "السر": 4921,
      "بغير": 4922,
      "تخص": 4923,
      "هسا": 4924,
      "بتخ": 4925,
      "هكذا": 4926,
      "الاسعار": 4927,
      "تلف": 4928,
      "##مانيه": 4929,
      "شمال": 4930,
      "##لمات": 4931,
      "بتاعي": 4932,
      "زه": 4933,
      "السلطه": 4934,
      "الجايه": 4935,
      "خايفه": 4936,
      "وكله": 4937,
      "قوم": 4938,
      "خب": 4939,
      "راك": 4940,
      "داخلي": 4941,
      "ترج": 4942,
      "ملحدين": 4943,
      "نظريه": 4944,
      "رات": 4945,
      "راف": 4946,
      "التر": 4947,
      "يفيد": 4948,
      "##ايمه": 4949,
      "اتعرف": 4950,
      "تعي": 4951,
      "##خلفه": 4952,
      "تواصل": 4953,
      "كلي": 4954,
      "الطرفين": 4955,
      "وتس": 4956,
      "##قده": 4957,
      "اكلم": 4958,
      "الهند": 4959,
      "##ستا": 4960,
      "امتحان": 4961,
      "صديق": 4962,
      "بدور": 4963,
      "مواقف": 4964,
      "بيئه": 4965,
      "احتر": 4966,
      "ابوه": 4967,
      "الاخره": 4968,
      "##اهيه": 4969,
      "البنك": 4970,
      "ره": 4971,
      "العاب": 4972,
      "الثان": 4973,
      "يقت": 4974,
      "سياسي": 4975,
      "##ذل": 4976,
      "بانه": 4977,
      "نوعا": 4978,
      "##روره": 4979,
      "باختصار": 4980,
      "اختيار": 4981,
      "غيري": 4982,
      "##قولي": 4983,
      "##ميد": 4984,
      "##رضا": 4985,
      "##لاثه": 4986,
      "الكويت": 4987,
      "رياضه": 4988,
      "اخرج": 4989,
      "توا": 4990,
      "##قراطيه": 4991,
      "بمن": 4992,
      "##نز": 4993,
      "حلقه": 4994,
      "طا": 4995,
      "لاحظت": 4996,
      "##قابل": 4997,
      "تجا": 4998,
      "##اخذ": 4999,
      "##جود": 5000,
      "الكتب": 5001,
      "مول": 5002,
      "كافر": 5003,
      "اصبح": 5004,
      "متابع": 5005,
      "الامان": 5006,
      "عده": 5007,
      "##لامي": 5008,
      "يخرج": 5009,
      "الصحيح": 5010,
      "بتاخد": 5011,
      "بالشكل": 5012,
      "الوز": 5013,
      "ينا": 5014,
      "زيهم": 5015,
      "ورد": 5016,
      "بتب": 5017,
      "ويمكن": 5018,
      "افريقيا": 5019,
      "بسهوله": 5020,
      "جيب": 5021,
      "##وارع": 5022,
      "وها": 5023,
      "رايه": 5024,
      "##روبات": 5025,
      "للخ": 5026,
      "السودان": 5027,
      "ميه": 5028,
      "الاخير": 5029,
      "رف": 5030,
      "جمله": 5031,
      "##نها": 5032,
      "تلقي": 5033,
      "مننا": 5034,
      "##عني": 5035,
      "بيج": 5036,
      "راسك": 5037,
      "مبروك": 5038,
      "يار": 5039,
      "##ميله": 5040,
      "##كتات": 5041,
      "احط": 5042,
      "المشاعر": 5043,
      "مجهود": 5044,
      "كذب": 5045,
      "طاقه": 5046,
      "المرا": 5047,
      "لكنه": 5048,
      "بالمناسبه": 5049,
      "##سام": 5050,
      "كافي": 5051,
      "##ضحيه": 5052,
      "الجو": 5053,
      "##شار": 5054,
      "##تيمه": 5055,
      "دينار": 5056,
      "يكونوا": 5057,
      "تفكيرك": 5058,
      "يستخدم": 5059,
      "المخت": 5060,
      "قديم": 5061,
      "حاد": 5062,
      "##تصب": 5063,
      "متخلف": 5064,
      "وتقول": 5065,
      "السعر": 5066,
      "دوا": 5067,
      "بعم": 5068,
      "صر": 5069,
      "##قلي": 5070,
      "البط": 5071,
      "حجه": 5072,
      "يستاهل": 5073,
      "يعملوا": 5074,
      "والث": 5075,
      "اولاد": 5076,
      "جمع": 5077,
      "تنسي": 5078,
      "مناسبه": 5079,
      "مدرسه": 5080,
      "السياسه": 5081,
      "ايدك": 5082,
      "اسلاميه": 5083,
      "الصغيره": 5084,
      "الاجابه": 5085,
      "بالل": 5086,
      "حافظ": 5087,
      "ماديا": 5088,
      "جوز": 5089,
      "فاش": 5090,
      "بنفسه": 5091,
      "سلبي": 5092,
      "بالبيت": 5093,
      "باك": 5094,
      "الاثنين": 5095,
      "ثقاف": 5096,
      "##راسه": 5097,
      "رديت": 5098,
      "##وون": 5099,
      "اطلب": 5100,
      "حياتها": 5101,
      "جوه": 5102,
      "##سباب": 5103,
      "حكومه": 5104,
      "##هاجر": 5105,
      "انج": 5106,
      "وزاره": 5107,
      "الرئيس": 5108,
      "معاكي": 5109,
      "##وعيه": 5110,
      "وبركاته": 5111,
      "السماء": 5112,
      "تريد": 5113,
      "راجع": 5114,
      "##ارق": 5115,
      "نه": 5116,
      "الشب": 5117,
      "المقص": 5118,
      "لوحدك": 5119,
      "##وقه": 5120,
      "الجهل": 5121,
      "ديما": 5122,
      "##شتري": 5123,
      "يحكم": 5124,
      "سالفه": 5125,
      "وراح": 5126,
      "راسي": 5127,
      "الذكاء": 5128,
      "الفلسطينيين": 5129,
      "معرفه": 5130,
      "تفضل": 5131,
      "اغاني": 5132,
      "اراء": 5133,
      "اتعامل": 5134,
      "##جهزه": 5135,
      "هوي": 5136,
      "بالر": 5137,
      "##زار": 5138,
      "توقف": 5139,
      "العصر": 5140,
      "تدري": 5141,
      "اجنبي": 5142,
      "المسيحيين": 5143,
      "لغايه": 5144,
      "الاوسط": 5145,
      "وصف": 5146,
      "بساطه": 5147,
      "قائ": 5148,
      "الحيوانات": 5149,
      "##ذيه": 5150,
      "وليه": 5151,
      "اكره": 5152,
      "مصلحه": 5153,
      "الطيب": 5154,
      "الدم": 5155,
      "جات": 5156,
      "للف": 5157,
      "##ايش": 5158,
      "الطرق": 5159,
      "الصهي": 5160,
      "که": 5161,
      "السياسي": 5162,
      "يعجب": 5163,
      "ظروف": 5164,
      "فيكم": 5165,
      "الاط": 5166,
      "حلول": 5167,
      "افلام": 5168,
      "الاغلبيه": 5169,
      "##واق": 5170,
      "##نوا": 5171,
      "برضوا": 5172,
      "##عمر": 5173,
      "##زعل": 5174,
      "مصدق": 5175,
      "جهاز": 5176,
      "فد": 5177,
      "الجيم": 5178,
      "جايب": 5179,
      "اصغر": 5180,
      "امراض": 5181,
      "يدور": 5182,
      "##سون": 5183,
      "اختبار": 5184,
      "السم": 5185,
      "العلاج": 5186,
      "##كيت": 5187,
      "الاهم": 5188,
      "مجتمعنا": 5189,
      "الجمعه": 5190,
      "رسمي": 5191,
      "زباله": 5192,
      "ايدي": 5193,
      "##ياد": 5194,
      "الماده": 5195,
      "نظرك": 5196,
      "يلعب": 5197,
      "تقلي": 5198,
      "مسك": 5199,
      "تربيه": 5200,
      "تطلب": 5201,
      "##خطي": 5202,
      "جهه": 5203,
      "يعطي": 5204,
      "##بسط": 5205,
      "الفرد": 5206,
      "رحم": 5207,
      "روسيا": 5208,
      "تعرض": 5209,
      "##تحرش": 5210,
      "##ندس": 5211,
      "يتعلم": 5212,
      "دفع": 5213,
      "بحياتي": 5214,
      "قديمه": 5215,
      "كاس": 5216,
      "استغل": 5217,
      "اقوله": 5218,
      "اللب": 5219,
      "##كايه": 5220,
      "متدين": 5221,
      "يومي": 5222,
      "هقولك": 5223,
      "جريمه": 5224,
      "##ولوج": 5225,
      "المعت": 5226,
      "الجزيره": 5227,
      "عظيم": 5228,
      "##كتشف": 5229,
      "كلب": 5230,
      "##ميت": 5231,
      "الدعم": 5232,
      "جزاك": 5233,
      "وانك": 5234,
      "##راح": 5235,
      "تسلي": 5236,
      "##شيخ": 5237,
      "خلقه": 5238,
      "العيد": 5239,
      "الشريعه": 5240,
      "##ورك": 5241,
      "مافيش": 5242,
      "خلينا": 5243,
      "حابه": 5244,
      "الاصل": 5245,
      "شاءالله": 5246,
      "##عمار": 5247,
      "السوريين": 5248,
      "##لقي": 5249,
      "يتجوز": 5250,
      "##زلت": 5251,
      "خش": 5252,
      "##ذنب": 5253,
      "##غال": 5254,
      "يخليك": 5255,
      "قريبه": 5256,
      "سمحت": 5257,
      "مصريه": 5258,
      "الحساب": 5259,
      "السوشيال": 5260,
      "تبحث": 5261,
      "نحب": 5262,
      "##وقرا": 5263,
      "عدا": 5264,
      "الملا": 5265,
      "خيار": 5266,
      "##ريكيه": 5267,
      "الارب": 5268,
      "اثبات": 5269,
      "ذكرت": 5270,
      "بيوت": 5271,
      "لخ": 5272,
      "الجامعات": 5273,
      "جما": 5274,
      "بيعم": 5275,
      "يضرب": 5276,
      "كيما": 5277,
      "التجربه": 5278,
      "بالمن": 5279,
      "الشا": 5280,
      "##فير": 5281,
      "بريط": 5282,
      "##دمت": 5283,
      "##زون": 5284,
      "فمش": 5285,
      "##رتها": 5286,
      "فمن": 5287,
      "المستشفي": 5288,
      "الجزء": 5289,
      "اكتئاب": 5290,
      "##انع": 5291,
      "مقاطع": 5292,
      "##ﷺﷺ": 5293,
      "شكلي": 5294,
      "اسبوعين": 5295,
      "السوي": 5296,
      "##عاد": 5297,
      "بينكم": 5298,
      "##ادئ": 5299,
      "##حكي": 5300,
      "##ساوي": 5301,
      "الثقافه": 5302,
      "زع": 5303,
      "اشكال": 5304,
      "بالتالي": 5305,
      "ضحك": 5306,
      "العاط": 5307,
      "فلي": 5308,
      "الشخصي": 5309,
      "مميز": 5310,
      "الدع": 5311,
      "ای": 5312,
      "##عالج": 5313,
      "المنشور": 5314,
      "السل": 5315,
      "البيئه": 5316,
      "زيي": 5317,
      "تتعامل": 5318,
      "##هابيه": 5319,
      "الصوت": 5320,
      "نار": 5321,
      "انهي": 5322,
      "محاوله": 5323,
      "بود": 5324,
      "##جال": 5325,
      "الضغط": 5326,
      "المصدر": 5327,
      "يسب": 5328,
      "##نساء": 5329,
      "##اناه": 5330,
      "##عها": 5331,
      "عنصري": 5332,
      "يسمح": 5333,
      "واكيد": 5334,
      "باح": 5335,
      "##اتل": 5336,
      "متجوز": 5337,
      "كيلو": 5338,
      "نقل": 5339,
      "حجات": 5340,
      "المؤمنين": 5341,
      "##وائي": 5342,
      "الفساد": 5343,
      "وصار": 5344,
      "معقول": 5345,
      "الجن": 5346,
      "عزي": 5347,
      "ببعض": 5348,
      "يقوم": 5349,
      "هيه": 5350,
      "نساء": 5351,
      "بتفكر": 5352,
      "الفا": 5353,
      "##ولوجيا": 5354,
      "يخلص": 5355,
      "الاحترام": 5356,
      "قبي": 5357,
      "فيلم": 5358,
      "اسود": 5359,
      "حسبي": 5360,
      "بشار": 5361,
      "بيعملوا": 5362,
      "مله": 5363,
      "بنفسي": 5364,
      "تموت": 5365,
      "غني": 5366,
      "##ربوا": 5367,
      "جهل": 5368,
      "اجتماعيه": 5369,
      "الجنسي": 5370,
      "اللح": 5371,
      "سيره": 5372,
      "اجابه": 5373,
      "انشاء": 5374,
      "##دب": 5375,
      "وتج": 5376,
      "منيح": 5377,
      "##دور": 5378,
      "الحالات": 5379,
      "اعتبر": 5380,
      "العش": 5381,
      "مسلسل": 5382,
      "بيض": 5383,
      "يوتيوب": 5384,
      "تكر": 5385,
      "حلي": 5386,
      "اغنيه": 5387,
      "الاكبر": 5388,
      "##فش": 5389,
      "ماك": 5390,
      "##دائي": 5391,
      "##ائح": 5392,
      "مفيده": 5393,
      "وسا": 5394,
      "اصب": 5395,
      "البخ": 5396,
      "مكه": 5397,
      "بتصير": 5398,
      "##وتك": 5399,
      "فرد": 5400,
      "سعي": 5401,
      "العاده": 5402,
      "قوله": 5403,
      "متت": 5404,
      "اعمال": 5405,
      "الزوجه": 5406,
      "العيش": 5407,
      "##رمجه": 5408,
      "المز": 5409,
      "الامريكيه": 5410,
      "ومحدش": 5411,
      "الاسئله": 5412,
      "تخاف": 5413,
      "هدا": 5414,
      "##مسك": 5415,
      "الفجر": 5416,
      "اضط": 5417,
      "ماعرف": 5418,
      "اتذكر": 5419,
      "ضعيفه": 5420,
      "راتب": 5421,
      "ورج": 5422,
      "الموقع": 5423,
      "فرج": 5424,
      "الصالح": 5425,
      "ماده": 5426,
      "معم": 5427,
      "كتابه": 5428,
      "##ريضه": 5429,
      "##فشخ": 5430,
      "والغ": 5431,
      "الاشكال": 5432,
      "نصيب": 5433,
      "##يته": 5434,
      "##جاج": 5435,
      "الامتحان": 5436,
      "مصريين": 5437,
      "##ونهم": 5438,
      "العشر": 5439,
      "يهدي": 5440,
      "##النا": 5441,
      "حولي": 5442,
      "##نيسه": 5443,
      "القدره": 5444,
      "عسكري": 5445,
      "قاب": 5446,
      "قرر": 5447,
      "ماعندي": 5448,
      "##اليف": 5449,
      "الابت": 5450,
      "الضحك": 5451,
      "##خرا": 5452,
      "فارق": 5453,
      "الصور": 5454,
      "بلوك": 5455,
      "الحكي": 5456,
      "السب": 5457,
      "##نق": 5458,
      "تزيد": 5459,
      "ماين": 5460,
      "##راي": 5461,
      "الوعي": 5462,
      "##حاد": 5463,
      "##لوبه": 5464,
      "الجمال": 5465,
      "مليان": 5466,
      "##جعه": 5467,
      "##فاهم": 5468,
      "واعي": 5469,
      "##ويات": 5470,
      "مدم": 5471,
      "بتروح": 5472,
      "علميه": 5473,
      "شديد": 5474,
      "مقبول": 5475,
      "ربع": 5476,
      "##اءه": 5477,
      "رق": 5478,
      "الامريكي": 5479,
      "متعرفش": 5480,
      "متوقع": 5481,
      "تتغير": 5482,
      "محتاجين": 5483,
      "##ليون": 5484,
      "##صلات": 5485,
      "##حيط": 5486,
      "##جاوب": 5487,
      "بتطلع": 5488,
      "##اضيه": 5489,
      "برج": 5490,
      "##عوبه": 5491,
      "##لامك": 5492,
      "الرقم": 5493,
      "بيخ": 5494,
      "بشي": 5495,
      "ورق": 5496,
      "##عيم": 5497,
      "صريح": 5498,
      "سك": 5499,
      "الامام": 5500,
      "والر": 5501,
      "الديني": 5502,
      "ريد": 5503,
      "يكره": 5504,
      "بهم": 5505,
      "المبلغ": 5506,
      "ظه": 5507,
      "عائشه": 5508,
      "التد": 5509,
      "وتكون": 5510,
      "بالز": 5511,
      "بالطريقه": 5512,
      "بتحاول": 5513,
      "##وائيه": 5514,
      "القهوه": 5515,
      "هتعمل": 5516,
      "بيننا": 5517,
      "##جاوز": 5518,
      "سكن": 5519,
      "##تمني": 5520,
      "##دوء": 5521,
      "مفيد": 5522,
      "تكن": 5523,
      "لنفسي": 5524,
      "##عث": 5525,
      "وخص": 5526,
      "##حيح": 5527,
      "التعليق": 5528,
      "ومين": 5529,
      "اعطي": 5530,
      "ويست": 5531,
      "شارع": 5532,
      "الصحابه": 5533,
      "التربيه": 5534,
      "تلعب": 5535,
      "وخلي": 5536,
      "بزاف": 5537,
      "فكري": 5538,
      "معمل": 5539,
      "##الق": 5540,
      "اغير": 5541,
      "ومات": 5542,
      "##واني": 5543,
      "الحلقه": 5544,
      "نهار": 5545,
      "بزياده": 5546,
      "وقفت": 5547,
      "مطعم": 5548,
      "##باك": 5549,
      "ابوها": 5550,
      "##تمه": 5551,
      "##ظاهر": 5552,
      "##رفي": 5553,
      "والط": 5554,
      "التك": 5555,
      "اري": 5556,
      "وعشان": 5557,
      "سعوديه": 5558,
      "##جان": 5559,
      "وايه": 5560,
      "اخل": 5561,
      "ماتت": 5562,
      "ماما": 5563,
      "الخبر": 5564,
      "روحت": 5565,
      "العموم": 5566,
      "المواطن": 5567,
      "اخاف": 5568,
      "تصدق": 5569,
      "القوه": 5570,
      "هب": 5571,
      "جسمك": 5572,
      "##كار": 5573,
      "فيما": 5574,
      "ياعم": 5575,
      "##حتنا": 5576,
      "المثال": 5577,
      "##لاحظ": 5578,
      "سفر": 5579,
      "صفحه": 5580,
      "بلدي": 5581,
      "شاي": 5582,
      "تعليقات": 5583,
      "وفعلا": 5584,
      "الغالب": 5585,
      "##جين": 5586,
      "بالحياه": 5587,
      "وبعض": 5588,
      "غاليه": 5589,
      "##دفع": 5590,
      "##عك": 5591,
      "بور": 5592,
      "للط": 5593,
      "برش": 5594,
      "اجر": 5595,
      "##نده": 5596,
      "السياسيه": 5597,
      "بيته": 5598,
      "مكانه": 5599,
      "الاحوال": 5600,
      "التف": 5601,
      "بكم": 5602,
      "كلا": 5603,
      "##عاطف": 5604,
      "مزاج": 5605,
      "اخواني": 5606,
      "##ستقبل": 5607,
      "هسه": 5608,
      "بالعربي": 5609,
      "نو": 5610,
      "ومب": 5611,
      "شروط": 5612,
      "##وضه": 5613,
      "تعليقي": 5614,
      "##تيار": 5615,
      "سياسيه": 5616,
      "##اهرات": 5617,
      "خم": 5618,
      "##لابس": 5619,
      "انجاز": 5620,
      "اترك": 5621,
      "وللا": 5622,
      "مشارك": 5623,
      "الحلو": 5624,
      "ابني": 5625,
      "ابيض": 5626,
      "الفقر": 5627,
      "بث": 5628,
      "اشك": 5629,
      "يفرق": 5630,
      "محم": 5631,
      "##اطق": 5632,
      "بتك": 5633,
      "المقد": 5634,
      "متوسط": 5635,
      "الفاضي": 5636,
      "تعط": 5637,
      "قاله": 5638,
      "وعندي": 5639,
      "بوجود": 5640,
      "اصدقاء": 5641,
      "##طلقه": 5642,
      "جدي": 5643,
      "اجنبيه": 5644,
      "##عتمد": 5645,
      "اهلا": 5646,
      "ساي": 5647,
      "الطلاق": 5648,
      "مبني": 5649,
      "واز": 5650,
      "اصلي": 5651,
      "المادي": 5652,
      "##جت": 5653,
      "مساله": 5654,
      "اخيرا": 5655,
      "الزنا": 5656,
      "لولا": 5657,
      "يو": 5658,
      "##ربين": 5659,
      "وعدم": 5660,
      "##روق": 5661,
      "ممتازه": 5662,
      "وتب": 5663,
      "العمليه": 5664,
      "ايوا": 5665,
      "اسب": 5666,
      "##نسيه": 5667,
      "حقها": 5668,
      "##واس": 5669,
      "ياما": 5670,
      "راحه": 5671,
      "##عاب": 5672,
      "يقرا": 5673,
      "التطبيق": 5674,
      "امراه": 5675,
      "##تيش": 5676,
      "شفته": 5677,
      "يرجي": 5678,
      "بالام": 5679,
      "##غات": 5680,
      "زم": 5681,
      "##حمل": 5682,
      "الافلام": 5683,
      "طفله": 5684,
      "مثلك": 5685,
      "##جابيه": 5686,
      "عر": 5687,
      "حظر": 5688,
      "محافظ": 5689,
      "مستقبل": 5690,
      "العين": 5691,
      "مجموع": 5692,
      "يكفي": 5693,
      "جوده": 5694,
      "ارخص": 5695,
      "الغريب": 5696,
      "لتح": 5697,
      "معلم": 5698,
      "##طناعي": 5699,
      "##ايات": 5700,
      "##ثمر": 5701,
      "استه": 5702,
      "##قاعد": 5703,
      "منزل": 5704,
      "كاين": 5705,
      "اخذت": 5706,
      "كلمات": 5707,
      "ليله": 5708,
      "##افهه": 5709,
      "القناه": 5710,
      "##المين": 5711,
      "يهديك": 5712,
      "لكي": 5713,
      "حرم": 5714,
      "بكر": 5715,
      "##جنب": 5716,
      "تختلف": 5717,
      "دقايق": 5718,
      "الترا": 5719,
      "معنا": 5720,
      "بينك": 5721,
      "ترام": 5722,
      "تجمع": 5723,
      "##زقه": 5724,
      "وبالنسبه": 5725,
      "الوظيفه": 5726,
      "يرحمه": 5727,
      "الولا": 5728,
      "##زاء": 5729,
      "الحقيقيه": 5730,
      "الجسم": 5731,
      "##لوق": 5732,
      "هش": 5733,
      "##كتوره": 5734,
      "تكوني": 5735,
      "##قصه": 5736,
      "وقلت": 5737,
      "الكره": 5738,
      "##يير": 5739,
      "سوف": 5740,
      "##ورات": 5741,
      "المقاطعه": 5742,
      "##قيد": 5743,
      "الجميل": 5744,
      "يصرف": 5745,
      "كانها": 5746,
      "دير": 5747,
      "رفع": 5748,
      "عاملين": 5749,
      "المرض": 5750,
      "علماء": 5751,
      "قمه": 5752,
      "استش": 5753,
      "##دمان": 5754,
      "##ادم": 5755,
      "المناسب": 5756,
      "كبار": 5757,
      "بيتم": 5758,
      "مسؤوليه": 5759,
      "هيعمل": 5760,
      "كافيه": 5761,
      "اهتم": 5762,
      "حياتنا": 5763,
      "وتست": 5764,
      "اجانب": 5765,
      "اتفرج": 5766,
      "فصل": 5767,
      "نصيحتي": 5768,
      "الاساسي": 5769,
      "الاساسيه": 5770,
      "##ظره": 5771,
      "يرضي": 5772,
      "السوريه": 5773,
      "ابناء": 5774,
      "بته": 5775,
      "هاذ": 5776,
      "الاسم": 5777,
      "طلبت": 5778,
      "تبغي": 5779,
      "الاهتمام": 5780,
      "رزق": 5781,
      "اند": 5782,
      "زيها": 5783,
      "اخبار": 5784,
      "##لطول": 5785,
      "البخاري": 5786,
      "تعام": 5787,
      "والاست": 5788,
      "##قتهم": 5789,
      "ديم": 5790,
      "ارجو": 5791,
      "##واح": 5792,
      "معروفه": 5793,
      "مطلوب": 5794,
      "جوج": 5795,
      "##ديش": 5796,
      "فكل": 5797,
      "بكلم": 5798,
      "##ريط": 5799,
      "التلف": 5800,
      "الدوام": 5801,
      "بدنا": 5802,
      "العائله": 5803,
      "مناطق": 5804,
      "##بيض": 5805,
      "ومس": 5806,
      "مصيبه": 5807,
      "##صفات": 5808,
      "##ناته": 5809,
      "فلان": 5810,
      "بيشوف": 5811,
      "الفلسطينيه": 5812,
      "حص": 5813,
      "اثنين": 5814,
      "ماس": 5815,
      "ويج": 5816,
      "عقليه": 5817,
      "ملايين": 5818,
      "وقل": 5819,
      "الفرا": 5820,
      "##انت": 5821,
      "بصي": 5822,
      "الحاليه": 5823,
      "##اهده": 5824,
      "ريحه": 5825,
      "عملوا": 5826,
      "وعايز": 5827,
      "سخ": 5828,
      "##تحار": 5829,
      "عشره": 5830,
      "##وضي": 5831,
      "تختار": 5832,
      "عذاب": 5833,
      "##لحه": 5834,
      "رسم": 5835,
      "العراقي": 5836,
      "##ائج": 5837,
      "الالم": 5838,
      "##داع": 5839,
      "بطلع": 5840,
      "هادي": 5841,
      "يالله": 5842,
      "##خصه": 5843,
      "##وتين": 5844,
      "##ورين": 5845,
      "##وبيه": 5846,
      "للاسلام": 5847,
      "اسمي": 5848,
      "##امره": 5849,
      "وزير": 5850,
      "دخول": 5851,
      "امس": 5852,
      "ماشاءالله": 5853,
      "بسمع": 5854,
      "يعتمد": 5855,
      "##ابته": 5856,
      "##ليك": 5857,
      "السف": 5858,
      "الداخليه": 5859,
      "وربي": 5860,
      "##خليني": 5861,
      "خليه": 5862,
      "بيقولك": 5863,
      "##ستك": 5864,
      "قرف": 5865,
      "اداره": 5866,
      "واكثر": 5867,
      "كلامهم": 5868,
      "علوم": 5869,
      "##نوات": 5870,
      "##حبي": 5871,
      "لاسباب": 5872,
      "الواد": 5873,
      "اليمين": 5874,
      "اخلاقي": 5875,
      "فالح": 5876,
      "تدرس": 5877,
      "##ذيب": 5878,
      "حظ": 5879,
      "المعلومه": 5880,
      "##راءات": 5881,
      "مام": 5882,
      "المواد": 5883,
      "يدي": 5884,
      "##بيوتر": 5885,
      "عدل": 5886,
      "##شري": 5887,
      "##وجي": 5888,
      "الجوال": 5889,
      "تقت": 5890,
      "وخصوصا": 5891,
      "خفيف": 5892,
      "بيفكر": 5893,
      "المتحده": 5894,
      "##صات": 5895,
      "الجانب": 5896,
      "##ادس": 5897,
      "##ريس": 5898,
      "الفيس": 5899,
      "التعبير": 5900,
      "بيوم": 5901,
      "فلما": 5902,
      "##ماس": 5903,
      "##ظل": 5904,
      "الرئي": 5905,
      "قبلها": 5906,
      "فلسطيني": 5907,
      "فاشل": 5908,
      "يقولوا": 5909,
      "المسجد": 5910,
      "الروح": 5911,
      "تلبس": 5912,
      "##ائب": 5913,
      "فهذا": 5914,
      "اسرع": 5915,
      "بكرا": 5916,
      "يرزقك": 5917,
      "عائله": 5918,
      "يضحك": 5919,
      "اليس": 5920,
      "يبارك": 5921,
      "##عملش": 5922,
      "بالكلام": 5923,
      "تعامل": 5924,
      "##بن": 5925,
      "براحتك": 5926,
      "يعينك": 5927,
      "##طات": 5928,
      "##الكتر": 5929,
      "این": 5930,
      "المثليه": 5931,
      "اخره": 5932,
      "اتزوج": 5933,
      "شغاله": 5934,
      "كول": 5935,
      "المناطق": 5936,
      "وزي": 5937,
      "مساعد": 5938,
      "##الا": 5939,
      "متناكه": 5940,
      "علطول": 5941,
      "ادمان": 5942,
      "##وسيقي": 5943,
      "متد": 5944,
      "انسي": 5945,
      "اكتو": 5946,
      "قلق": 5947,
      "النصيحه": 5948,
      "لابس": 5949,
      "الهويه": 5950,
      "يقدم": 5951,
      "استع": 5952,
      "هدول": 5953,
      "بعيده": 5954,
      "خالق": 5955,
      "الطائ": 5956,
      "العالميه": 5957,
      "بالجامعه": 5958,
      "##تيب": 5959,
      "عبدالله": 5960,
      "اكتوبر": 5961,
      "النب": 5962,
      "ثالثا": 5963,
      "يجد": 5964,
      "نحنا": 5965,
      "الجد": 5966,
      "##خول": 5967,
      "وعادي": 5968,
      "تفرق": 5969,
      "##صره": 5970,
      "منغير": 5971,
      "الاعمال": 5972,
      "بيني": 5973,
      "تعطي": 5974,
      "الاغنيه": 5975,
      "حجم": 5976,
      "تنصح": 5977,
      "والموضوع": 5978,
      "تاب": 5979,
      "بعضها": 5980,
      "##ختفي": 5981,
      "وجع": 5982,
      "##طول": 5983,
      "الخلق": 5984,
      "تافه": 5985,
      "تحديدا": 5986,
      "خار": 5987,
      "زوجها": 5988,
      "##غف": 5989,
      "تربي": 5990,
      "العسكري": 5991,
      "تبني": 5992,
      "مساحه": 5993,
      "##اليات": 5994,
      "المدارس": 5995,
      "وجل": 5996,
      "تحمل": 5997,
      "سلي": 5998,
      "ورقه": 5999,
      "يدل": 6000,
      "لذي": 6001,
      "مابي": 6002,
      "ادفع": 6003,
      "والمع": 6004,
      "يلبس": 6005,
      "دماغه": 6006,
      "زعلان": 6007,
      "العبي": 6008,
      "عالاقل": 6009,
      "محب": 6010,
      "بذ": 6011,
      "##یم": 6012,
      "##خين": 6013,
      "التط": 6014,
      "العلميه": 6015,
      "الجه": 6016,
      "المعني": 6017,
      "غي": 6018,
      "الدكاتره": 6019,
      "ايات": 6020,
      "تجربتي": 6021,
      "##ضم": 6022,
      "بسال": 6023,
      "لفتره": 6024,
      "اوسخ": 6025,
      "بحبك": 6026,
      "##قتنا": 6027,
      "تنس": 6028,
      "ذاك": 6029,
      "##ريا": 6030,
      "اتغير": 6031,
      "بالسعوديه": 6032,
      "##خدام": 6033,
      "المف": 6034,
      "يختلف": 6035,
      "تمت": 6036,
      "##وليه": 6037,
      "##عدم": 6038,
      "لدي": 6039,
      "بيتح": 6040,
      "انتهي": 6041,
      "غبيه": 6042,
      "فكك": 6043,
      "لواحد": 6044,
      "##حيان": 6045,
      "ارق": 6046,
      "لقد": 6047,
      "الخطا": 6048,
      "##شم": 6049,
      "هست": 6050,
      "تقل": 6051,
      "مصالح": 6052,
      "كنتي": 6053,
      "حري": 6054,
      "عدو": 6055,
      "ظهر": 6056,
      "فاذا": 6057,
      "تكره": 6058,
      "##ايا": 6059,
      "الالكتر": 6060,
      "قرارات": 6061,
      "##جير": 6062,
      "نخ": 6063,
      "يخاف": 6064,
      "##كلف": 6065,
      "الجنوب": 6066,
      "##ديل": 6067,
      "الحركه": 6068,
      "وشي": 6069,
      "اموت": 6070,
      "بديت": 6071,
      "يرزق": 6072,
      "سيدي": 6073,
      "##واجهه": 6074,
      "ولك": 6075,
      "ذكري": 6076,
      "محافظه": 6077,
      "طري": 6078,
      "دب": 6079,
      "المقاومه": 6080,
      "بدهم": 6081,
      "المواقف": 6082,
      "##يرو": 6083,
      "##لاقيها": 6084,
      "##كلفه": 6085,
      "الانسانيه": 6086,
      "تتوقع": 6087,
      "الجمه": 6088,
      "##وحده": 6089,
      "يؤمن": 6090,
      "لناس": 6091,
      "انط": 6092,
      "الطلاب": 6093,
      "طعم": 6094,
      "يوقف": 6095,
      "ياثر": 6096,
      "متزوج": 6097,
      "الانجليزي": 6098,
      "يوس": 6099,
      "##افات": 6100,
      "##ستور": 6101,
      "##جيد": 6102,
      "الشيوخ": 6103,
      "متخيل": 6104,
      "يهتم": 6105,
      "اوصل": 6106,
      "لسبب": 6107,
      "تقصد": 6108,
      "يذكر": 6109,
      "##طلح": 6110,
      "مقطع": 6111,
      "##مارسه": 6112,
      "الثقه": 6113,
      "زوجته": 6114,
      "##طنين": 6115,
      "وضعك": 6116,
      "فلم": 6117,
      "##دنا": 6118,
      "بنص": 6119,
      "##ندا": 6120,
      "تبقا": 6121,
      "اثناء": 6122,
      "متاع": 6123,
      "العقليه": 6124,
      "فص": 6125,
      "العد": 6126,
      "بمش": 6127,
      "##وارات": 6128,
      "##انوني": 6129,
      "##قها": 6130,
      "بتتح": 6131,
      "تسي": 6132,
      "كاني": 6133,
      "شيئا": 6134,
      "ذاته": 6135,
      "البلا": 6136,
      "الاغاني": 6137,
      "زوجه": 6138,
      "اخلص": 6139,
      "ثابت": 6140,
      "هيجي": 6141,
      "##اريو": 6142,
      "ازمه": 6143,
      "حره": 6144,
      "##وحه": 6145,
      "اشتغلت": 6146,
      "خطه": 6147,
      "فتحت": 6148,
      "مصاري": 6149,
      "سق": 6150,
      "العسكريه": 6151,
      "فوت": 6152,
      "التفاصيل": 6153,
      "اتجاه": 6154,
      "الشيعه": 6155,
      "نعيش": 6156,
      "##ترات": 6157,
      "فج": 6158,
      "##اها": 6159,
      "مرتبط": 6160,
      "هههه": 6161,
      "##سيم": 6162,
      "##ظيف": 6163,
      "##سلات": 6164,
      "##ذين": 6165,
      "##ذبه": 6166,
      "الدفاع": 6167,
      "اسافر": 6168,
      "ازا": 6169,
      "تكبر": 6170,
      "حبيب": 6171,
      "ليل": 6172,
      "الاكتئاب": 6173,
      "يوص": 6174,
      "ليبيا": 6175,
      "اعظم": 6176,
      "شغلك": 6177,
      "وبرضو": 6178,
      "السلاح": 6179,
      "بفضل": 6180,
      "يظهر": 6181,
      "##قهر": 6182,
      "##وقراطيه": 6183,
      "جالس": 6184,
      "بتشتغل": 6185,
      "ايها": 6186,
      "الانجليزيه": 6187,
      "تستاهل": 6188,
      "رابط": 6189,
      "صاير": 6190,
      "البت": 6191,
      "نفسنا": 6192,
      "##ضرر": 6193,
      "النف": 6194,
      "كاش": 6195,
      "الحج": 6196,
      "عشت": 6197,
      "الكام": 6198,
      "##غوط": 6199,
      "الجهاز": 6200,
      "تقوله": 6201,
      "الظلم": 6202,
      "واغلب": 6203,
      "توق": 6204,
      "سلطه": 6205,
      "ماج": 6206,
      "كبرت": 6207,
      "يسلم": 6208,
      "##وائل": 6209,
      "الارهاب": 6210,
      "العاص": 6211,
      "##ونسي": 6212,
      "ادب": 6213,
      "الماديه": 6214,
      "اليا": 6215,
      "بتلاقي": 6216,
      "الاحاديث": 6217,
      "##نهي": 6218,
      "##عارض": 6219,
      "##ابر": 6220,
      "عمرو": 6221,
      "مشغ": 6222,
      "##لسله": 6223,
      "اياه": 6224,
      "مجلس": 6225,
      "ذاكر": 6226,
      "المعي": 6227,
      "منتشر": 6228,
      "مكس": 6229,
      "ترو": 6230,
      "وراه": 6231,
      "واتوب": 6232,
      "بتقولي": 6233,
      "##عليقات": 6234,
      "هتك": 6235,
      "دف": 6236,
      "وطلع": 6237,
      "عاجبك": 6238,
      "نادي": 6239,
      "وانتم": 6240,
      "بيصير": 6241,
      "يكمل": 6242,
      "والحمدلله": 6243,
      "اعلام": 6244,
      "عاقل": 6245,
      "ياخ": 6246,
      "يكر": 6247,
      "اوضح": 6248,
      "ساعتين": 6249,
      "##ينج": 6250,
      "##مايه": 6251,
      "لغير": 6252,
      "متط": 6253,
      "عبيد": 6254,
      "تعملي": 6255,
      "المستوي": 6256,
      "شغلي": 6257,
      "نوم": 6258,
      "سما": 6259,
      "بنك": 6260,
      "مبالغ": 6261,
      "وو": 6262,
      "مدير": 6263,
      "وتعالي": 6264,
      "نصر": 6265,
      "##ذار": 6266,
      "بتيجي": 6267,
      "##ائه": 6268,
      "متاخر": 6269,
      "بشتغل": 6270,
      "الاعل": 6271,
      "ضرر": 6272,
      "تعود": 6273,
      "والدي": 6274,
      "##خخخخخخخخ": 6275,
      "شعوب": 6276,
      "خلت": 6277,
      "سؤالي": 6278,
      "فشل": 6279,
      "وبالتالي": 6280,
      "باد": 6281,
      "##فال": 6282,
      "معدل": 6283,
      "متن": 6284,
      "لاحد": 6285,
      "علاش": 6286,
      "##حص": 6287,
      "عرق": 6288,
      "بنتكلم": 6289,
      "شن": 6290,
      "نرجع": 6291,
      "ثلاثه": 6292,
      "الوطني": 6293,
      "باخ": 6294,
      "بريطانيا": 6295,
      "نجاح": 6296,
      "##ينيه": 6297,
      "منح": 6298,
      "صاحبه": 6299,
      "اقتصادي": 6300,
      "الته": 6301,
      "عبيط": 6302,
      "بدال": 6303,
      "جانب": 6304,
      "الدر": 6305,
      "##ضايا": 6306,
      "بحجه": 6307,
      "حطي": 6308,
      "سيبك": 6309,
      "##فضه": 6310,
      "ابعت": 6311,
      "سف": 6312,
      "##ونت": 6313,
      "الجمله": 6314,
      "الاخبار": 6315,
      "##اند": 6316,
      "فده": 6317,
      "الامراض": 6318,
      "اللعبه": 6319,
      "قدره": 6320,
      "يعين": 6321,
      "الاسرائيلي": 6322,
      "##زح": 6323,
      "##ضعاف": 6324,
      "واتمني": 6325,
      "سليم": 6326,
      "السالفه": 6327,
      "جيم": 6328,
      "الشوارع": 6329,
      "سلط": 6330,
      "##شوا": 6331,
      "والاح": 6332,
      "فاهمين": 6333,
      "اوا": 6334,
      "ترضي": 6335,
      "الطاقه": 6336,
      "##بارح": 6337,
      "##عاون": 6338,
      "بوستات": 6339,
      "##رجال": 6340,
      "جاهز": 6341,
      "الحلوه": 6342,
      "محا": 6343,
      "صلاح": 6344,
      "سياسه": 6345,
      "##صحك": 6346,
      "مواد": 6347,
      "##ماد": 6348,
      "مبد": 6349,
      "##اضره": 6350,
      "ردود": 6351,
      "اسلامي": 6352,
      "بسوريا": 6353,
      "صحيه": 6354,
      "الناحيه": 6355,
      "المجتمعات": 6356,
      "الجاي": 6357,
      "##الفات": 6358,
      "وتشوف": 6359,
      "يدعم": 6360,
      "مادي": 6361,
      "بتص": 6362,
      "بالمش": 6363,
      "##نعت": 6364,
      "الشقه": 6365,
      "توقع": 6366,
      "احفظ": 6367,
      "موث": 6368,
      "ميك": 6369,
      "الادب": 6370,
      "مصاريف": 6371,
      "موظف": 6372,
      "##راجل": 6373,
      "هواي": 6374,
      "للدين": 6375,
      "اسماء": 6376,
      "مرب": 6377,
      "كهرب": 6378,
      "##ديق": 6379,
      "شات": 6380,
      "اختلف": 6381,
      "##ظيمه": 6382,
      "وللاسف": 6383,
      "وقتي": 6384,
      "ياج": 6385,
      "فهل": 6386,
      "##قبال": 6387,
      "##مييز": 6388,
      "الكلب": 6389,
      "مشاريع": 6390,
      "الشك": 6391,
      "اتابع": 6392,
      "جهنم": 6393,
      "بالضروره": 6394,
      "المرحله": 6395,
      "الفيديوهات": 6396,
      "##رايب": 6397,
      "مانع": 6398,
      "بلده": 6399,
      "##شش": 6400,
      "اوفر": 6401,
      "##طاقه": 6402,
      "الكتر": 6403,
      "شاطر": 6404,
      "المظ": 6405,
      "##ذره": 6406,
      "قالو": 6407,
      "##فصل": 6408,
      "قواعد": 6409,
      "مافيها": 6410,
      "تخلف": 6411,
      "المم": 6412,
      "تقدري": 6413,
      "##عايه": 6414,
      "يوفق": 6415,
      "حيا": 6416,
      "الامل": 6417,
      "##زاب": 6418,
      "##ائنات": 6419,
      "##زيون": 6420,
      "صادق": 6421,
      "##سو": 6422,
      "##خره": 6423,
      "مراجعه": 6424,
      "الطبيعه": 6425,
      "دكاتره": 6426,
      "بات": 6427,
      "##عليم": 6428,
      "هديه": 6429,
      "بصح": 6430,
      "لحالي": 6431,
      "للموضوع": 6432,
      "بيروح": 6433,
      "ادله": 6434,
      "تسليما": 6435,
      "##جابه": 6436,
      "معلوم": 6437,
      "متعود": 6438,
      "##سها": 6439,
      "تسافر": 6440,
      "التوفيق": 6441,
      "##فيين": 6442,
      "الوسخه": 6443,
      "نسخه": 6444,
      "عيله": 6445,
      "العلمانيه": 6446,
      "الكلمات": 6447,
      "##قلل": 6448,
      "الكومنتات": 6449,
      "تلاته": 6450,
      "لوحدها": 6451,
      "الخل": 6452,
      "مرسي": 6453,
      "ادويه": 6454,
      "قاط": 6455,
      "وغال": 6456,
      "شخصيتك": 6457,
      "##قبض": 6458,
      "##يادات": 6459,
      "مسؤول": 6460,
      "الوطنيه": 6461,
      "عملته": 6462,
      "جعل": 6463,
      "هرم": 6464,
      "الحاد": 6465,
      "رش": 6466,
      "##دادي": 6467,
      "السعاده": 6468,
      "تدريب": 6469,
      "يمثل": 6470,
      "اطول": 6471,
      "ذه": 6472,
      "ساكت": 6473,
      "##تان": 6474,
      "##ليفون": 6475,
      "العلمي": 6476,
      "طن": 6477,
      "يبغ": 6478,
      "الجي": 6479,
      "الجما": 6480,
      "اتص": 6481,
      "العنف": 6482,
      "احترم": 6483,
      "تحسب": 6484,
      "تنام": 6485,
      "اخطاء": 6486,
      "ترامب": 6487,
      "متعلم": 6488,
      "##قلك": 6489,
      "##ؤلاء": 6490,
      "رائع": 6491,
      "لون": 6492,
      "واحت": 6493,
      "##يهاش": 6494,
      "##كتش": 6495,
      "يقبل": 6496,
      "ضاي": 6497,
      "##ارح": 6498,
      "هاذا": 6499,
      "تخل": 6500,
      "يجعل": 6501,
      "تحرش": 6502,
      "امبارح": 6503,
      "يتعامل": 6504,
      "بشيء": 6505,
      "الضرب": 6506,
      "اشرح": 6507,
      "الماء": 6508,
      "##هاء": 6509,
      "البرنامج": 6510,
      "امير": 6511,
      "ولسه": 6512,
      "اراد": 6513,
      "هيعرف": 6514,
      "ليكي": 6515,
      "شري": 6516,
      "مبين": 6517,
      "لطيف": 6518,
      "عباد": 6519,
      "مقول": 6520,
      "تابع": 6521,
      "معايير": 6522,
      "لمصر": 6523,
      "بطلت": 6524,
      "ايجابي": 6525,
      "مخك": 6526,
      "بالكامل": 6527,
      "مستني": 6528,
      "لاننا": 6529,
      "##عضاء": 6530,
      "خرب": 6531,
      "اعراض": 6532,
      "مليانه": 6533,
      "قراءه": 6534,
      "كاتبه": 6535,
      "المو": 6536,
      "حمل": 6537,
      "يبيع": 6538,
      "##اولي": 6539,
      "اشوفها": 6540,
      "بشري": 6541,
      "##شهد": 6542,
      "تلت": 6543,
      "مشا": 6544,
      "##فور": 6545,
      "الدليل": 6546,
      "ترت": 6547,
      "كسب": 6548,
      "##شو": 6549,
      "الكفار": 6550,
      "نادر": 6551,
      "فريق": 6552,
      "ولل": 6553,
      "ورس": 6554,
      "الذات": 6555,
      "انفسهم": 6556,
      "الشهاده": 6557,
      "القرن": 6558,
      "القاعده": 6559,
      "اجرب": 6560,
      "فراغ": 6561,
      "مارح": 6562,
      "والاف": 6563,
      "علام": 6564,
      "فاتت": 6565,
      "كونك": 6566,
      "##صيه": 6567,
      "بانك": 6568,
      "كد": 6569,
      "##جهز": 6570,
      "باللغه": 6571,
      "##وقات": 6572,
      "الموب": 6573,
      "تعا": 6574,
      "##شع": 6575,
      "##فسه": 6576,
      "المقطع": 6577,
      "##غبه": 6578,
      "تتع": 6579,
      "بالانجليزي": 6580,
      "مريت": 6581,
      "مبر": 6582,
      "بغي": 6583,
      "##ليس": 6584,
      "مكانك": 6585,
      "##ظف": 6586,
      "##وجوده": 6587,
      "##كرك": 6588,
      "والمسلمين": 6589,
      "افتكر": 6590,
      "عباده": 6591,
      "مشترك": 6592,
      "للبنات": 6593,
      "اجازه": 6594,
      "الراس": 6595,
      "العدل": 6596,
      "وفوق": 6597,
      "الكوي": 6598,
      "يجمع": 6599,
      "برشا": 6600,
      "تعبان": 6601,
      "##بتك": 6602,
      "وقول": 6603,
      "صيد": 6604,
      "عصر": 6605,
      "##ائع": 6606,
      "##لاقيهم": 6607,
      "الاحداث": 6608,
      "وذ": 6609,
      "الطف": 6610,
      "النجاح": 6611,
      "القرف": 6612,
      "التغيير": 6613,
      "بتقوله": 6614,
      "دينهم": 6615,
      "##قصي": 6616,
      "##حوا": 6617,
      "يعرفون": 6618,
      "الايات": 6619,
      "##فتخر": 6620,
      "كوم": 6621,
      "المسيح": 6622,
      "يرفع": 6623,
      "اتع": 6624,
      "##بال": 6625,
      "الجزائري": 6626,
      "خالد": 6627,
      "ربما": 6628,
      "خا": 6629,
      "##سسات": 6630,
      "اسكندريه": 6631,
      "معليش": 6632,
      "الغربي": 6633,
      "زيد": 6634,
      "تحسن": 6635,
      "وغالبا": 6636,
      "امها": 6637,
      "الميه": 6638,
      "جوجل": 6639,
      "المدن": 6640,
      "واخر": 6641,
      "رغبه": 6642,
      "لسان": 6643,
      "واعرف": 6644,
      "ابل": 6645,
      "##ويد": 6646,
      "مهارات": 6647,
      "يحمي": 6648,
      "##ديات": 6649,
      "تصلي": 6650,
      "موش": 6651,
      "تتعرف": 6652,
      "مواطن": 6653,
      "واهم": 6654,
      "تستحق": 6655,
      "توجه": 6656,
      "##وارد": 6657,
      "بالعالم": 6658,
      "##قرب": 6659,
      "الحروب": 6660,
      "اذاكر": 6661,
      "حسابك": 6662,
      "##ائك": 6663,
      "عهد": 6664,
      "بتف": 6665,
      "العلي": 6666,
      "السجن": 6667,
      "شرف": 6668,
      "بالرياض": 6669,
      "معامله": 6670,
      "باه": 6671,
      "وخل": 6672,
      "تسب": 6673,
      "جمه": 6674,
      "اعاده": 6675,
      "السيد": 6676,
      "التم": 6677,
      "النور": 6678,
      "خلاني": 6679,
      "##حتهم": 6680,
      "بالاض": 6681,
      "قابل": 6682,
      "##وسع": 6683,
      "كشخص": 6684,
      "مرضي": 6685,
      "الاحيان": 6686,
      "دلوقت": 6687,
      "##ليف": 6688,
      "الضحيه": 6689,
      "##نتر": 6690,
      "عاشت": 6691,
      "تطوير": 6692,
      "##ارضه": 6693,
      "باف": 6694,
      "الطبيعيه": 6695,
      "كتي": 6696,
      "توف": 6697,
      "اتك": 6698,
      "طلاب": 6699,
      "مبقاش": 6700,
      "انمي": 6701,
      "السين": 6702,
      "ذو": 6703,
      "خصوص": 6704,
      "##طلعت": 6705,
      "الاردني": 6706,
      "هذول": 6707,
      "قرب": 6708,
      "كائن": 6709,
      "##رررر": 6710,
      "التخرج": 6711,
      "##منه": 6712,
      "خدت": 6713,
      "جيده": 6714,
      "##وسطه": 6715,
      "واشوف": 6716,
      "##عارف": 6717,
      "يحسب": 6718,
      "اللبس": 6719,
      "شيوخ": 6720,
      "الاحسن": 6721,
      "##عدت": 6722,
      "يحفظك": 6723,
      "هتم": 6724,
      "تلم": 6725,
      "يمد": 6726,
      "##قيل": 6727,
      "الخدمه": 6728,
      "لايك": 6729,
      "واقعي": 6730,
      "##ودز": 6731,
      "##بهم": 6732,
      "اصبحت": 6733,
      "وتعرف": 6734,
      "حيت": 6735,
      "سريع": 6736,
      "غلطه": 6737,
      "لحالك": 6738,
      "وترك": 6739,
      "بمكان": 6740,
      "متفهم": 6741,
      "عاطف": 6742,
      "اتخ": 6743,
      "اللبن": 6744,
      "##ميس": 6745,
      "البسي": 6746,
      "بحبها": 6747,
      "مثلي": 6748,
      "محدود": 6749,
      "يسعدك": 6750,
      "نتا": 6751,
      "واحس": 6752,
      "##حبش": 6753,
      "تزعل": 6754,
      "##لوكي": 6755,
      "معندكش": 6756,
      "لست": 6757,
      "هوه": 6758,
      "حكمه": 6759,
      "تدعم": 6760,
      "##قدير": 6761,
      "##قفل": 6762,
      "رهيب": 6763,
      "##رجم": 6764,
      "فتنه": 6765,
      "مشاركه": 6766,
      "##طباء": 6767,
      "محلات": 6768,
      "##لتها": 6769,
      "نصف": 6770,
      "جنه": 6771,
      "باعت": 6772,
      "##صاص": 6773,
      "دعاء": 6774,
      "الالعاب": 6775,
      "ابغا": 6776,
      "تافهه": 6777,
      "وبتاع": 6778,
      "المسا": 6779,
      "##بوط": 6780,
      "دنيا": 6781,
      "احبك": 6782,
      "##يييييييي": 6783,
      "##نهج": 6784,
      "قف": 6785,
      "نسي": 6786,
      "ذهب": 6787,
      "شتم": 6788,
      "##وجيهي": 6789,
      "سلبيه": 6790,
      "##قدمه": 6791,
      "##توا": 6792,
      "زيت": 6793,
      "حطيت": 6794,
      "وجوده": 6795,
      "بقيه": 6796,
      "الانتحار": 6797,
      "توفي": 6798,
      "##جزه": 6799,
      "تقنع": 6800,
      "التصرف": 6801,
      "اخدت": 6802,
      "الاتحاد": 6803,
      "الرياضه": 6804,
      "انني": 6805,
      "بوا": 6806,
      "##ناب": 6807,
      "تعرفي": 6808,
      "يال": 6809,
      "الفات": 6810,
      "ثانويه": 6811,
      "كه": 6812,
      "##هادات": 6813,
      "متخ": 6814,
      "اعلان": 6815,
      "العرق": 6816,
      "اوعي": 6817,
      "معجب": 6818,
      "مبقتش": 6819,
      "مستغرب": 6820,
      "الاعلي": 6821,
      "##اجي": 6822,
      "اتن": 6823,
      "##ميزه": 6824,
      "##صحاب": 6825,
      "ودخل": 6826,
      "اخوه": 6827,
      "##تهد": 6828,
      "##حمده": 6829,
      "بتم": 6830,
      "تحذ": 6831,
      "يتع": 6832,
      "ملهوش": 6833,
      "قصيره": 6834,
      "حمايه": 6835,
      "اليك": 6836,
      "مليش": 6837,
      "الده": 6838,
      "واول": 6839,
      "يخص": 6840,
      "مفتوح": 6841,
      "##شيش": 6842,
      "الراتب": 6843,
      "اشرب": 6844,
      "هيب": 6845,
      "بيشتغل": 6846,
      "موق": 6847,
      "موافق": 6848,
      "##فذ": 6849,
      "منصه": 6850,
      "تبعد": 6851,
      "وهنا": 6852,
      "##طبع": 6853,
      "جروب": 6854,
      "متاك": 6855,
      "تهتم": 6856,
      "##بير": 6857,
      "تضيع": 6858,
      "الحمام": 6859,
      "الكيان": 6860,
      "تكفي": 6861,
      "بحياتك": 6862,
      "ورب": 6863,
      "##عيل": 6864,
      "##اهم": 6865,
      "قالتلي": 6866,
      "سح": 6867,
      "سؤالك": 6868,
      "تمنع": 6869,
      "ببلاش": 6870,
      "بالرغم": 6871,
      "لبن": 6872,
      "مراته": 6873,
      "هعمل": 6874,
      "##خيصه": 6875,
      "تاثر": 6876,
      "##شاء": 6877,
      "واث": 6878,
      "بلدنا": 6879,
      "وبحمده": 6880,
      "##سيا": 6881,
      "بطي": 6882,
      "فكان": 6883,
      "توكل": 6884,
      "ظل": 6885,
      "غباء": 6886,
      "##روز": 6887,
      "بديل": 6888,
      "اغلبيه": 6889,
      "الروا": 6890,
      "عدي": 6891,
      "يجيك": 6892,
      "##حيد": 6893,
      "اسره": 6894,
      "المض": 6895,
      "تصور": 6896,
      "##زوجه": 6897,
      "يعملو": 6898,
      "##فلسطين": 6899,
      "استغرب": 6900,
      "الازهر": 6901,
      "الوق": 6902,
      "مهتمه": 6903,
      "اسرائي": 6904,
      "يام": 6905,
      "##ايت": 6906,
      "##كونش": 6907,
      "للامانه": 6908,
      "عمتا": 6909,
      "حقهم": 6910,
      "مدرس": 6911,
      "عزيزي": 6912,
      "الاحساس": 6913,
      "برامج": 6914,
      "بالاضافه": 6915,
      "سبي": 6916,
      "##كاست": 6917,
      "##وضيح": 6918,
      "##قبله": 6919,
      "عادل": 6920,
      "هههههه": 6921,
      "##ابهه": 6922,
      "وفر": 6923,
      "ساف": 6924,
      "الولاد": 6925,
      "مصل": 6926,
      "الرابط": 6927,
      "بتحس": 6928,
      "جرا": 6929,
      "الجميله": 6930,
      "العيله": 6931,
      "مشاعرك": 6932,
      "قدامه": 6933,
      "الطلب": 6934,
      "الفرصه": 6935,
      "بليز": 6936,
      "حميد": 6937,
      "##ديني": 6938,
      "واعت": 6939,
      "اقنع": 6940,
      "بيجيب": 6941,
      "##بتني": 6942,
      "##زاز": 6943,
      "لنفسه": 6944,
      "خطاب": 6945,
      "العبوديه": 6946,
      "##ذوذ": 6947,
      "##ثيل": 6948,
      "لاخر": 6949,
      "##عع": 6950,
      "##ضيق": 6951,
      "للجميع": 6952,
      "الموسيقي": 6953,
      "اجعل": 6954,
      "##طاق": 6955,
      "يدرس": 6956,
      "معقوله": 6957,
      "تحليل": 6958,
      "##ومين": 6959,
      "##ذكره": 6960,
      "عشرين": 6961,
      "##زيا": 6962,
      "نصايح": 6963,
      "والدين": 6964,
      "##جمع": 6965,
      "يشتم": 6966,
      "حن": 6967,
      "الاسره": 6968,
      "##ثمار": 6969,
      "##ارده": 6970,
      "الحم": 6971,
      "سني": 6972,
      "يبعد": 6973,
      "##رود": 6974,
      "يعوض": 6975,
      "قطعه": 6976,
      "بيم": 6977,
      "للاست": 6978,
      "بتجيب": 6979,
      "رافض": 6980,
      "موجه": 6981,
      "وجد": 6982,
      "الشرقيه": 6983,
      "الوظ": 6984,
      "انسانه": 6985,
      "مناف": 6986,
      "الثالث": 6987,
      "نازل": 6988,
      "تعليقك": 6989,
      "تترك": 6990,
      "المشروع": 6991,
      "درجات": 6992,
      "فضلت": 6993,
      "يكبر": 6994,
      "الرحيم": 6995,
      "الفض": 6996,
      "دائم": 6997,
      "ملاحظ": 6998,
      "جع": 6999,
      "وبيت": 7000,
      "يبين": 7001,
      "ميم": 7002,
      "تعد": 7003,
      "قضي": 7004,
      "بصوت": 7005,
      "اكس": 7006,
      "شايفها": 7007,
      "اتش": 7008,
      "الاصطناعي": 7009,
      "الاقتصاديه": 7010,
      "عقده": 7011,
      "تسم": 7012,
      "قبول": 7013,
      "##وكل": 7014,
      "مصطفي": 7015,
      "مقص": 7016,
      "##بارات": 7017,
      "لمرحله": 7018,
      "وكلام": 7019,
      "اساسي": 7020,
      "##رفيه": 7021,
      "احداث": 7022,
      "بنيه": 7023,
      "فالش": 7024,
      "تمن": 7025,
      "حركات": 7026,
      "اسالك": 7027,
      "##فتها": 7028,
      "استف": 7029,
      "##جهود": 7030,
      "الاعضاء": 7031,
      "تعملها": 7032,
      "تحول": 7033,
      "اعملها": 7034,
      "هوايه": 7035,
      "ملاحظه": 7036,
      "##واذ": 7037,
      "وبتح": 7038,
      "ماء": 7039,
      "##كنه": 7040,
      "بالعافيه": 7041,
      "##سيل": 7042,
      "دافع": 7043,
      "شرب": 7044,
      "وايضا": 7045,
      "علاقتك": 7046,
      "##غانستان": 7047,
      "ايده": 7048,
      "لدكتور": 7049,
      "وري": 7050,
      "الفصل": 7051,
      "##رها": 7052,
      "##سسه": 7053,
      "ردي": 7054,
      "الرغم": 7055,
      "قالها": 7056,
      "##الكلام": 7057,
      "يدعي": 7058,
      "غرف": 7059,
      "##اوي": 7060,
      "##بايه": 7061,
      "##بري": 7062,
      "بالاخير": 7063,
      "هتن": 7064,
      "نحكي": 7065,
      "صغار": 7066,
      "##بلش": 7067,
      "تسويه": 7068,
      "السيارات": 7069,
      "##طلبات": 7070,
      "اهميه": 7071,
      "ههههههههههههههههه": 7072,
      "##قن": 7073,
      "##ميات": 7074,
      "المشاركه": 7075,
      "صفات": 7076,
      "بتاعتك": 7077,
      "يتك": 7078,
      "مستمر": 7079,
      "شد": 7080,
      "عف": 7081,
      "عينك": 7082,
      "الين": 7083,
      "وكذلك": 7084,
      "الحضاره": 7085,
      "##طلبه": 7086,
      "الشم": 7087,
      "ماحد": 7088,
      "بحال": 7089,
      "الوسط": 7090,
      "معندوش": 7091,
      "##عيط": 7092,
      "##ووو": 7093,
      "ولن": 7094,
      "الثلاث": 7095,
      "هج": 7096,
      "ويك": 7097,
      "تشت": 7098,
      "فط": 7099,
      "زياره": 7100,
      "صفر": 7101,
      "الارت": 7102,
      "براي": 7103,
      "اغلي": 7104,
      "فساد": 7105,
      "رسميه": 7106,
      "حز": 7107,
      "يحترم": 7108,
      "بقوله": 7109,
      "ميب": 7110,
      "##غب": 7111,
      "لكنها": 7112,
      "امريكي": 7113,
      "جسمي": 7114,
      "##لاوه": 7115,
      "تنفع": 7116,
      "الاض": 7117,
      "دوره": 7118,
      "واو": 7119,
      "يتابع": 7120,
      "مؤخرا": 7121,
      "صي": 7122,
      "ذكي": 7123,
      "يتر": 7124,
      "ناقصه": 7125,
      "الخارجيه": 7126,
      "##دهم": 7127,
      "وسيله": 7128,
      "يعد": 7129,
      "ويوم": 7130,
      "##يج": 7131,
      "عملي": 7132,
      "الاو": 7133,
      "##روبه": 7134,
      "غرفه": 7135,
      "لحاله": 7136,
      "الخطاب": 7137,
      "يؤدي": 7138,
      "الفتنه": 7139,
      "عنجد": 7140,
      "الاير": 7141,
      "##ندوق": 7142,
      "##صريين": 7143,
      "دفاع": 7144,
      "##سوي": 7145,
      "بتر": 7146,
      "الني": 7147,
      "##ايك": 7148,
      "متف": 7149,
      "يبدو": 7150,
      "الفئه": 7151,
      "##طم": 7152,
      "لابسه": 7153,
      "اذي": 7154,
      "الدور": 7155,
      "للشخص": 7156,
      "ايفون": 7157,
      "يفرج": 7158,
      "##وسه": 7159,
      "##طيفه": 7160,
      "##يلي": 7161,
      "الابيض": 7162,
      "قبله": 7163,
      "وراء": 7164,
      "##يشن": 7165,
      "الحاكم": 7166,
      "##ويج": 7167,
      "##راعه": 7168,
      "اسما": 7169,
      "محرم": 7170,
      "الكافر": 7171,
      "##قبه": 7172,
      "اكونت": 7173,
      "ذكاء": 7174,
      "مهندس": 7175,
      "نوا": 7176,
      "##جرام": 7177,
      "##انك": 7178,
      "اشد": 7179,
      "كويسين": 7180,
      "##ليت": 7181,
      "اقولها": 7182,
      "##ئكه": 7183,
      "العوا": 7184,
      "المنط": 7185,
      "السوش": 7186,
      "الادويه": 7187,
      "وسب": 7188,
      "درست": 7189,
      "بالاسلام": 7190,
      "صهي": 7191,
      "السكر": 7192,
      "تبعت": 7193,
      "وطن": 7194,
      "##خانق": 7195,
      "استم": 7196,
      "لعل": 7197,
      "ههههههههههههههههههههههههههههههههه": 7198,
      "حسين": 7199,
      "الكتابه": 7200,
      "يدافع": 7201,
      "الصفحه": 7202,
      "بتعمله": 7203,
      "##فاعل": 7204,
      "تعتمد": 7205,
      "تعبانه": 7206,
      "##فتش": 7207,
      "##بتوب": 7208,
      "خليها": 7209,
      "حيوان": 7210,
      "فري": 7211,
      "##خلو": 7212,
      "##ثيه": 7213,
      "##شد": 7214,
      "تخليك": 7215,
      "##سابي": 7216,
      "روحك": 7217,
      "جنوب": 7218,
      "اضعاف": 7219,
      "الصحراء": 7220,
      "يختار": 7221,
      "تالته": 7222,
      "ماكو": 7223,
      "##اعل": 7224,
      "نروح": 7225,
      "دوام": 7226,
      "لحتي": 7227,
      "##زلي": 7228,
      "تبت": 7229,
      "وبدون": 7230,
      "قدمت": 7231,
      "جربي": 7232,
      "بسب": 7233,
      "زا": 7234,
      "ابنه": 7235,
      "عاوزين": 7236,
      "##بدايه": 7237,
      "تاك": 7238,
      "للابد": 7239,
      "واجه": 7240,
      "الاجنبي": 7241,
      "العادات": 7242,
      "حروب": 7243,
      "الزباله": 7244,
      "تضرب": 7245,
      "وبش": 7246,
      "تفتكر": 7247,
      "افترض": 7248,
      "بيز": 7249,
      "هاض": 7250,
      "تقدير": 7251,
      "اصير": 7252,
      "##بهه": 7253,
      "برب": 7254,
      "##ولوجي": 7255,
      "افراد": 7256,
      "تقتل": 7257,
      "##بده": 7258,
      "##وظفين": 7259,
      "##كتاب": 7260,
      "زايد": 7261,
      "للحياه": 7262,
      "##وفه": 7263,
      "التقلي": 7264,
      "وتص": 7265,
      "الكور": 7266,
      "معقد": 7267,
      "العلوم": 7268,
      "يساعدك": 7269,
      "ياك": 7270,
      "المدي": 7271,
      "للحين": 7272,
      "متس": 7273,
      "هؤلاء": 7274,
      "##ادمه": 7275,
      "اشتر": 7276,
      "نبقي": 7277,
      "الزمان": 7278,
      "خريج": 7279,
      "ستي": 7280,
      "##نهار": 7281,
      "المسؤوليه": 7282,
      "تحيا": 7283,
      "احبه": 7284,
      "عسكريه": 7285,
      "##شتراك": 7286,
      "زينه": 7287,
      "ملح": 7288,
      "هر": 7289,
      "بالسي": 7290,
      "مشهور": 7291,
      "اتس": 7292,
      "لحاجه": 7293,
      "التفسير": 7294,
      "امثله": 7295,
      "تصريح": 7296,
      "تفيد": 7297,
      "فاضيه": 7298,
      "قلته": 7299,
      "باشا": 7300,
      "محدد": 7301,
      "جاني": 7302,
      "##ينهم": 7303,
      "مشيت": 7304,
      "حالها": 7305,
      "والاج": 7306,
      "يشتري": 7307,
      "الاسلوب": 7308,
      "شخصيات": 7309,
      "تخش": 7310,
      "الذكر": 7311,
      "بحت": 7312,
      "##واريخ": 7313,
      "ماه": 7314,
      "ضمير": 7315,
      "اثار": 7316,
      "مقدرش": 7317,
      "اعوذ": 7318,
      "##عملي": 7319,
      "يمكنك": 7320,
      "##قون": 7321,
      "##جبات": 7322,
      "شكون": 7323,
      "سيار": 7324,
      "##يفون": 7325,
      "لمش": 7326,
      "اسر": 7327,
      "رحله": 7328,
      "وشو": 7329,
      "نجيب": 7330,
      "اهانه": 7331,
      "الاحياء": 7332,
      "الاسف": 7333,
      "الفص": 7334,
      "##يسر": 7335,
      "مفيهاش": 7336,
      "بيخلي": 7337,
      "غض": 7338,
      "اللو": 7339,
      "ماح": 7340,
      "علما": 7341,
      "بهذه": 7342,
      "وتقدر": 7343,
      "الصحيه": 7344,
      "ملف": 7345,
      "الجواب": 7346,
      "سبع": 7347,
      "اللحظه": 7348,
      "##روها": 7349,
      "والمن": 7350,
      "وتم": 7351,
      "ورح": 7352,
      "يرا": 7353,
      "تركز": 7354,
      "القصص": 7355,
      "اهداف": 7356,
      "بيكره": 7357,
      "##عرفوش": 7358,
      "وقع": 7359,
      "كرم": 7360,
      "انثي": 7361,
      "تظهر": 7362,
      "##ستير": 7363,
      "مكر": 7364,
      "تام": 7365,
      "##ايير": 7366,
      "##ولوجيه": 7367,
      "الحبيب": 7368,
      "برايي": 7369,
      "تشوفه": 7370,
      "مغال": 7371,
      "صفحتنا": 7372,
      "هويه": 7373,
      "الفطره": 7374,
      "الوجه": 7375,
      "واثق": 7376,
      "مخي": 7377,
      "ببقي": 7378,
      "##عكس": 7379,
      "##كوين": 7380,
      "والارض": 7381,
      "الاقتصادي": 7382,
      "شارك": 7383,
      "##قوم": 7384,
      "البقره": 7385,
      "ياتي": 7386,
      "##طالب": 7387,
      "اسلم": 7388,
      "وعمل": 7389,
      "##طوا": 7390,
      "وتف": 7391,
      "سج": 7392,
      "قصير": 7393,
      "شرم": 7394,
      "توفر": 7395,
      "الشامي": 7396,
      "انص": 7397,
      "واغ": 7398,
      "تشي": 7399,
      "##ظمي": 7400,
      "اقصي": 7401,
      "الكنيسه": 7402,
      "هيقول": 7403,
      "عمرهم": 7404,
      "##دامه": 7405,
      "##حقق": 7406,
      "محصل": 7407,
      "السكان": 7408,
      "بموضوع": 7409,
      "ترم": 7410,
      "المتناكه": 7411,
      "ومل": 7412,
      "تحل": 7413,
      "اردني": 7414,
      "برجع": 7415,
      "##اير": 7416,
      "النوا": 7417,
      "حجاب": 7418,
      "اغل": 7419,
      "مخلي": 7420,
      "##فيديو": 7421,
      "##ارم": 7422,
      "داخله": 7423,
      "الاوروبي": 7424,
      "##دعي": 7425,
      "فاكره": 7426,
      "##طلحات": 7427,
      "والمش": 7428,
      "الوالد": 7429,
      "يخل": 7430,
      "مانت": 7431,
      "يومك": 7432,
      "الكوكب": 7433,
      "سيناء": 7434,
      "السكن": 7435,
      "وتخ": 7436,
      "المسيحي": 7437,
      "مريح": 7438,
      "القطاع": 7439,
      "سعره": 7440,
      "الثانويه": 7441,
      "نقد": 7442,
      "صفه": 7443,
      "ارقام": 7444,
      "حولك": 7445,
      "تسيب": 7446,
      "الموبايل": 7447,
      "اكتشف": 7448,
      "##سيك": 7449,
      "##وجع": 7450,
      "الدرجه": 7451,
      "##بيين": 7452,
      "شفتها": 7453,
      "سطحيه": 7454,
      "شت": 7455,
      "يرفض": 7456,
      "بينت": 7457,
      "يلعن": 7458,
      "صدفه": 7459,
      "احكام": 7460,
      "كراهيه": 7461,
      "المخدرات": 7462,
      "##رضه": 7463,
      "يمر": 7464,
      "اعرفهم": 7465,
      "كثره": 7466,
      "مصد": 7467,
      "مصير": 7468,
      "بول": 7469,
      "بشخص": 7470,
      "وشخص": 7471,
      "عادات": 7472,
      "الاداره": 7473,
      "واقول": 7474,
      "الصهيوني": 7475,
      "قامت": 7476,
      "لينك": 7477,
      "لاست": 7478,
      "##برا": 7479,
      "احص": 7480,
      "الدماغ": 7481,
      "حواليك": 7482,
      "اسلو": 7483,
      "تشارك": 7484,
      "ذك": 7485,
      "لاج": 7486,
      "احتلال": 7487,
      "يقولو": 7488,
      "بكلام": 7489,
      "مشتركه": 7490,
      "##بطت": 7491,
      "يوسف": 7492,
      "حتا": 7493,
      "فاح": 7494,
      "##هلك": 7495,
      "الكلاب": 7496,
      "##سله": 7497,
      "فلوسك": 7498,
      "ميد": 7499,
      "الدولي": 7500,
      "##علقه": 7501,
      "نهائيا": 7502,
      "##رجه": 7503,
      "البل": 7504,
      "تشيل": 7505,
      "يالي": 7506,
      "المتوسط": 7507,
      "يسوون": 7508,
      "منظور": 7509,
      "عشانه": 7510,
      "##زياء": 7511,
      "يخدم": 7512,
      "جلد": 7513,
      "راسه": 7514,
      "لاسرائيل": 7515,
      "يساعدني": 7516,
      "واما": 7517,
      "المطلوب": 7518,
      "الامم": 7519,
      "مبنيه": 7520,
      "المسؤ": 7521,
      "امورك": 7522,
      "##راحات": 7523,
      "للعلم": 7524,
      "الوجود": 7525,
      "استغفرالله": 7526,
      "تاج": 7527,
      "ابا": 7528,
      "وضعي": 7529,
      "##انس": 7530,
      "وزنه": 7531,
      "شرك": 7532,
      "الطبقه": 7533,
      "القدس": 7534,
      "اسنان": 7535,
      "عاطفي": 7536,
      "البح": 7537,
      "الامريكان": 7538,
      "مقال": 7539,
      "بالناس": 7540,
      "هتاخد": 7541,
      "معتقدش": 7542,
      "##نيف": 7543,
      "ستات": 7544,
      "الصبر": 7545,
      "صنع": 7546,
      "صبر": 7547,
      "شعري": 7548,
      "متوا": 7549,
      "الانبياء": 7550,
      "اجا": 7551,
      "مزي": 7552,
      "##یل": 7553,
      "تدعي": 7554,
      "فائده": 7555,
      "يكونو": 7556,
      "اجتماع": 7557,
      "حاطط": 7558,
      "لذ": 7559,
      "مكتب": 7560,
      "الشمال": 7561,
      "مدارس": 7562,
      "##وازن": 7563,
      "دمشق": 7564,
      "واصلا": 7565,
      "لمح": 7566,
      "صاحبك": 7567,
      "خنا": 7568,
      "##واتي": 7569,
      "يغفر": 7570,
      "وشايف": 7571,
      "وقالت": 7572,
      "وغيرهم": 7573,
      "يسم": 7574,
      "بشع": 7575,
      "وجهك": 7576,
      "اخلاقيه": 7577,
      "هيح": 7578,
      "ضل": 7579,
      "##كتوك": 7580,
      "القمر": 7581,
      "##ئب": 7582,
      "نفهم": 7583,
      "بيف": 7584,
      "##بتش": 7585,
      "غادي": 7586,
      "الجاه": 7587,
      "ذوق": 7588,
      "##وبر": 7589,
      "بتمني": 7590,
      "ميتين": 7591,
      "بلاقي": 7592,
      "منتش": 7593,
      "تنظيم": 7594,
      "اليابان": 7595,
      "والباقي": 7596,
      "العقد": 7597,
      "يرت": 7598,
      "تعجب": 7599,
      "يشرح": 7600,
      "##بته": 7601,
      "##لهمش": 7602,
      "قلبه": 7603,
      "ولاكن": 7604,
      "تجاره": 7605,
      "التخ": 7606,
      "##ساعدك": 7607,
      "##حها": 7608,
      "##لن": 7609,
      "هجوم": 7610,
      "يسبب": 7611,
      "الصباح": 7612,
      "لز": 7613,
      "##رتهم": 7614,
      "العيب": 7615,
      "وانها": 7616,
      "خسر": 7617,
      "تقارن": 7618,
      "افض": 7619,
      "اخواتي": 7620,
      "فيسبوك": 7621,
      "سعوديين": 7622,
      "##خلها": 7623,
      "##رجمه": 7624,
      "ونب": 7625,
      "البني": 7626,
      "عث": 7627,
      "العزيز": 7628,
      "وبص": 7629,
      "##صرين": 7630,
      "بسعر": 7631,
      "وعارف": 7632,
      "القوي": 7633,
      "اير": 7634,
      "ناجح": 7635,
      "احلام": 7636,
      "##خلك": 7637,
      "المواقع": 7638,
      "##ثقافه": 7639,
      "وعندك": 7640,
      "ومره": 7641,
      "عجيب": 7642,
      "تنشر": 7643,
      "سيئ": 7644,
      "الحكوميه": 7645,
      "##غني": 7646,
      "ياه": 7647,
      "##جلش": 7648,
      "ظاهره": 7649,
      "الفيسبوك": 7650,
      "مدام": 7651,
      "هتفضل": 7652,
      "بحثت": 7653,
      "رفضت": 7654,
      "##نازل": 7655,
      "وراها": 7656,
      "فضول": 7657,
      "امث": 7658,
      "##حون": 7659,
      "خلاف": 7660,
      "تبطل": 7661,
      "الكبار": 7662,
      "والمشكله": 7663,
      "مهي": 7664,
      "عملها": 7665,
      "##جري": 7666,
      "قس": 7667,
      "##عاقب": 7668,
      "##غلو": 7669,
      "وفيها": 7670,
      "مقل": 7671,
      "##رز": 7672,
      "انتشار": 7673,
      "كيوت": 7674,
      "وست": 7675,
      "خلف": 7676,
      "كلكم": 7677,
      "نمو": 7678,
      "حمله": 7679,
      "قانوني": 7680,
      "برك": 7681,
      "افكارك": 7682,
      "الاختلاف": 7683,
      "الساح": 7684,
      "امال": 7685,
      "##اميه": 7686,
      "يمسك": 7687,
      "اقليه": 7688,
      "##سع": 7689,
      "##وكي": 7690,
      "الشت": 7691,
      "البد": 7692,
      "قائمه": 7693,
      "اغلبها": 7694,
      "بتفهم": 7695,
      "##حف": 7696,
      "عما": 7697,
      "##حيات": 7698,
      "واخذ": 7699,
      "اسمك": 7700,
      "ذنوب": 7701,
      "##روسه": 7702,
      "السلبيه": 7703,
      "##رائب": 7704,
      "سوريه": 7705,
      "عذر": 7706,
      "وصدق": 7707,
      "اضافه": 7708,
      "تخت": 7709,
      "هعرف": 7710,
      "##ضج": 7711,
      "وحبيب": 7712,
      "صلا": 7713,
      "الخالق": 7714,
      "جرائم": 7715,
      "عائل": 7716,
      "يبان": 7717,
      "اتكلمت": 7718,
      "وقعت": 7719,
      "##قولش": 7720,
      "تحقيق": 7721,
      "احسب": 7722,
      "العدو": 7723,
      "البس": 7724,
      "بعمر": 7725,
      "سمح": 7726,
      "كورس": 7727,
      "فارقه": 7728,
      "داون": 7729,
      "##لتهم": 7730,
      "##نيد": 7731,
      "##نته": 7732,
      "حالتك": 7733,
      "الكبري": 7734,
      "الدولار": 7735,
      "فالموضوع": 7736,
      "الخص": 7737,
      "عرص": 7738,
      "فيت": 7739,
      "عيوب": 7740,
      "اسط": 7741,
      "المنكر": 7742,
      "كيم": 7743,
      "باخد": 7744,
      "##جاهل": 7745,
      "الراحه": 7746,
      "نوعيه": 7747,
      "##فيت": 7748,
      "تحسين": 7749,
      "زنا": 7750,
      "علمانيه": 7751,
      "يتقبل": 7752,
      "تسبب": 7753,
      "بيتي": 7754,
      "##داه": 7755,
      "##كونت": 7756,
      "لقيته": 7757,
      "يبغي": 7758,
      "تضحك": 7759,
      "##فاف": 7760,
      "قادرين": 7761,
      "ایران": 7762,
      "سند": 7763,
      "##شيد": 7764,
      "كملت": 7765,
      "ريدت": 7766,
      "والتح": 7767,
      "مطالب": 7768,
      "حسي": 7769,
      "##راس": 7770,
      "ترفع": 7771,
      "##ورها": 7772,
      "##فعال": 7773,
      "طموح": 7774,
      "بمجرد": 7775,
      "بالعراق": 7776,
      "جواب": 7777,
      "##الثه": 7778,
      "جايين": 7779,
      "سلسله": 7780,
      "العاديه": 7781,
      "##ئم": 7782,
      "افعال": 7783,
      "يسي": 7784,
      "امرك": 7785,
      "الاباحيه": 7786,
      "يضل": 7787,
      "##خسر": 7788,
      "##جاير": 7789,
      "تث": 7790,
      "شح": 7791,
      "مختلفين": 7792,
      "بشريه": 7793,
      "دورت": 7794,
      "توب": 7795,
      "ينشر": 7796,
      "العال": 7797,
      "منتجات": 7798,
      "ماليه": 7799,
      "حالهم": 7800,
      "واعمل": 7801,
      "اتاكد": 7802,
      "هياخد": 7803,
      "دوري": 7804,
      "##التين": 7805,
      "##داك": 7806,
      "خض": 7807,
      "الهجره": 7808,
      "##ربا": 7809,
      "الصيف": 7810,
      "سافر": 7811,
      "قلتلك": 7812,
      "الجماعه": 7813,
      "##افري": 7814,
      "كونه": 7815,
      "الحجات": 7816,
      "مادري": 7817,
      "كورونا": 7818,
      "مادام": 7819,
      "##ولنا": 7820,
      "روات": 7821,
      "بتاعته": 7822,
      "بالليل": 7823,
      "تناقض": 7824,
      "تقب": 7825,
      "حسابات": 7826,
      "شرق": 7827,
      "قسد": 7828,
      "شمس": 7829,
      "##ظار": 7830,
      "يشارك": 7831,
      "يوما": 7832,
      "##اجد": 7833,
      "الاختبار": 7834,
      "ماقدر": 7835,
      "اتق": 7836,
      "واحي": 7837,
      "خرجت": 7838,
      "##طت": 7839,
      "اعتذر": 7840,
      "يري": 7841,
      "متقل": 7842,
      "للشعب": 7843,
      "علامه": 7844,
      "وازاي": 7845,
      "الهبل": 7846,
      "فقير": 7847,
      "منتشره": 7848,
      "يصل": 7849,
      "مرو": 7850,
      "هتقدر": 7851,
      "لسي": 7852,
      "مقاطعه": 7853,
      "تكم": 7854,
      "بتاعهم": 7855,
      "اخص": 7856,
      "حمار": 7857,
      "للزواج": 7858,
      "وهذي": 7859,
      "اليوميه": 7860,
      "ماخذ": 7861,
      "##سوا": 7862,
      "##نيت": 7863,
      "مضطر": 7864,
      "بالث": 7865,
      "يعرفوا": 7866,
      "جزي": 7867,
      "تنتهي": 7868,
      "ومه": 7869,
      "تدم": 7870,
      "##نتهي": 7871,
      "ويطلع": 7872,
      "الظن": 7873,
      "الديمقراطيه": 7874,
      "##شين": 7875,
      "تسمح": 7876,
      "شفاء": 7877,
      "تقطع": 7878,
      "مؤقت": 7879,
      "امانه": 7880,
      "لمست": 7881,
      "وعنده": 7882,
      "وظيف": 7883,
      "محمود": 7884,
      "يسعد": 7885,
      "تعريف": 7886,
      "اطلا": 7887,
      "السابق": 7888,
      "راب": 7889,
      "نقط": 7890,
      "الكهرباء": 7891,
      "##فيف": 7892,
      "اتخيل": 7893,
      "##جيال": 7894,
      "السيئه": 7895,
      "هيفضل": 7896,
      "تمسك": 7897,
      "عبده": 7898,
      "بينه": 7899,
      "العبد": 7900,
      "تشوفي": 7901,
      "الشاشه": 7902,
      "جوال": 7903,
      "النقاب": 7904,
      "ارسل": 7905,
      "##ايقه": 7906,
      "وقبل": 7907,
      "نيه": 7908,
      "ديانه": 7909,
      "الاكثر": 7910,
      "قلوبنا": 7911,
      "الاختيار": 7912,
      "صدام": 7913,
      "وصح": 7914,
      "ومي": 7915,
      "افغانستان": 7916,
      "مريضه": 7917,
      "العهد": 7918,
      "##حتوي": 7919,
      "اعملي": 7920,
      "انتهت": 7921,
      "حرق": 7922,
      "مجيد": 7923,
      "يستر": 7924,
      "المهر": 7925,
      "وعلم": 7926,
      "##رقه": 7927,
      "اساله": 7928,
      "البرو": 7929,
      "بنشوف": 7930,
      "المذاكره": 7931,
      "##لوغ": 7932,
      "مسؤولي": 7933,
      "اقامه": 7934,
      "الذهب": 7935,
      "##خمه": 7936,
      "جوزها": 7937,
      "العنوان": 7938,
      "اربعه": 7939,
      "توافق": 7940,
      "تتك": 7941,
      "طيز": 7942,
      "##تاح": 7943,
      "##الغه": 7944,
      "وبنفس": 7945,
      "المقصود": 7946,
      "كورسات": 7947,
      "##عملو": 7948,
      "ربه": 7949,
      "الامتحانات": 7950,
      "معكم": 7951,
      "بفتره": 7952,
      "رضا": 7953,
      "اخلي": 7954,
      "اتباع": 7955,
      "##اتكم": 7956,
      "ردك": 7957,
      "ادني": 7958,
      "اغفر": 7959,
      "بيص": 7960,
      "للغ": 7961,
      "بكتب": 7962,
      "الانتخابات": 7963,
      "##فيذ": 7964,
      "كيفاش": 7965,
      "صعوبه": 7966,
      "##وقعه": 7967,
      "بالاح": 7968,
      "معندهمش": 7969,
      "احاديث": 7970,
      "ترفض": 7971,
      "##ضمن": 7972,
      "متاكده": 7973,
      "ثابته": 7974,
      "مساء": 7975,
      "##الين": 7976,
      "وارجع": 7977,
      "عقاب": 7978,
      "##ييي": 7979,
      "المدرس": 7980,
      "امنوا": 7981,
      "كلما": 7982,
      "الترم": 7983,
      "ولات": 7984,
      "روايه": 7985,
      "موافقه": 7986,
      "شخصيته": 7987,
      "العض": 7988,
      "وخلص": 7989,
      "##اثير": 7990,
      "وحبيبنا": 7991,
      "البور": 7992,
      "والاب": 7993,
      "يمين": 7994,
      "شرعي": 7995,
      "مرتاحه": 7996,
      "الصيام": 7997,
      "استر": 7998,
      "ويحفظ": 7999,
      "شم": 8000,
      "نايم": 8001,
      "بفهم": 8002,
      "لذا": 8003,
      "اطل": 8004,
      "##غيره": 8005,
      "يترك": 8006,
      "الموجود": 8007,
      "متر": 8008,
      "تفض": 8009,
      "بفلوس": 8010,
      "عيسي": 8011,
      "باشياء": 8012,
      "##برك": 8013,
      "تؤدي": 8014,
      "##طفل": 8015,
      "وسه": 8016,
      "بيقولو": 8017,
      "الماليه": 8018,
      "مسوي": 8019,
      "##صبيه": 8020,
      "نسال": 8021,
      "ونس": 8022,
      "باليوم": 8023,
      "##ئهم": 8024,
      "يتبع": 8025,
      "هيبقا": 8026,
      "يبعت": 8027,
      "المكت": 8028,
      "الادمان": 8029,
      "السك": 8030,
      "عملو": 8031,
      "بيدي": 8032,
      "##ظنش": 8033,
      "قدير": 8034,
      "الما": 8035,
      "عراقي": 8036,
      "تتبع": 8037,
      "تكونوا": 8038,
      "نحو": 8039,
      "المحل": 8040,
      "##مدينه": 8041,
      "##سمي": 8042,
      "بالتح": 8043,
      "اطار": 8044,
      "اورو": 8045,
      "السابقه": 8046,
      "هقول": 8047,
      "القيم": 8048,
      "سعيده": 8049,
      "مدر": 8050,
      "دعوات": 8051,
      "الرزق": 8052,
      "العسكر": 8053,
      "##جمات": 8054,
      "سيارات": 8055,
      "نطلع": 8056,
      "الخطوه": 8057,
      "ينطبق": 8058,
      "الغباء": 8059,
      "زحمه": 8060,
      "##ياج": 8061,
      "زينا": 8062,
      "عيشه": 8063,
      "عجز": 8064,
      "العص": 8065,
      "الفار": 8066,
      "تسا": 8067,
      "عملتها": 8068,
      "##اطره": 8069,
      "تغيرت": 8070,
      "##فتاح": 8071,
      "##بيان": 8072,
      "الغاز": 8073,
      "شرعيه": 8074,
      "خمسه": 8075,
      "هيطلع": 8076,
      "قطاع": 8077,
      "صليت": 8078,
      "بالذنب": 8079,
      "شخصيتي": 8080,
      "##لاعب": 8081,
      "##وصف": 8082,
      "تبغ": 8083,
      "الشرعيه": 8084,
      "الفراغ": 8085,
      "المصادر": 8086,
      "البحرين": 8087,
      "##سيس": 8088,
      "والو": 8089,
      "##ندق": 8090,
      "نام": 8091,
      "عنف": 8092,
      "فيكي": 8093,
      "بهاي": 8094,
      "رؤيه": 8095,
      "حضاره": 8096,
      "بيشتم": 8097,
      "مرجع": 8098,
      "الاسود": 8099,
      "تصرفات": 8100,
      "##ساء": 8101,
      "فاشله": 8102,
      "بيقولي": 8103,
      "كلمت": 8104,
      "والل": 8105,
      "##شات": 8106,
      "والحين": 8107,
      "يخليني": 8108,
      "جمب": 8109,
      "النقد": 8110,
      "##باع": 8111,
      "سعود": 8112,
      "غلطت": 8113,
      "يلاقي": 8114,
      "بالمعروف": 8115,
      "وامي": 8116,
      "الموجوده": 8117,
      "غيرت": 8118,
      "وانما": 8119,
      "المطاعم": 8120,
      "بجيب": 8121,
      "زفت": 8122,
      "هقدر": 8123,
      "ويصير": 8124,
      "الاصلي": 8125,
      "صله": 8126,
      "صرف": 8127,
      "كلامها": 8128,
      "اهلنا": 8129,
      "لطيفه": 8130,
      "احتياج": 8131,
      "هبل": 8132,
      "دل": 8133,
      "اشارك": 8134,
      "تيم": 8135,
      "معاد": 8136,
      "اتعمل": 8137,
      "تدافع": 8138,
      "خدم": 8139,
      "##ياح": 8140,
      "رياض": 8141,
      "سنتر": 8142,
      "##كلك": 8143,
      "##ترول": 8144,
      "مهر": 8145,
      "##وانب": 8146,
      "خساره": 8147,
      "هينفع": 8148,
      "##حدين": 8149,
      "تيك": 8150,
      "يزعل": 8151,
      "والكل": 8152,
      "##بيات": 8153,
      "الدار": 8154,
      "##قوي": 8155,
      "تحدد": 8156,
      "المريض": 8157,
      "الكراهيه": 8158,
      "مقبوله": 8159,
      "واحيانا": 8160,
      "رز": 8161,
      "بتدور": 8162,
      "قنات": 8163,
      "يحدث": 8164,
      "##عجب": 8165,
      "بوك": 8166,
      "صناعه": 8167,
      "جري": 8168,
      "عنوان": 8169,
      "حسابي": 8170,
      "صداقات": 8171,
      "يفعل": 8172,
      "التيك": 8173,
      "ماديه": 8174,
      "العرص": 8175,
      "ابتدائي": 8176,
      "الصالحه": 8177,
      "مسلس": 8178,
      "ترب": 8179,
      "##ويض": 8180,
      "شغلات": 8181,
      "مخلص": 8182,
      "##كنش": 8183,
      "##جهل": 8184,
      "كسمك": 8185,
      "الميم": 8186,
      "واسع": 8187,
      "يحارب": 8188,
      "حاكم": 8189,
      "حيل": 8190,
      "##دار": 8191,
      "الاجنبيه": 8192,
      "للمراه": 8193,
      "البوستات": 8194,
      "سينا": 8195,
      "رائعه": 8196,
      "والعافيه": 8197,
      "خات": 8198,
      "المياه": 8199,
      "الاكا": 8200,
      "اهليه": 8201,
      "ادعو": 8202,
      "دعو": 8203,
      "فيزا": 8204,
      "##ركين": 8205,
      "##التزام": 8206,
      "صدقيني": 8207,
      "اخواننا": 8208,
      "ورسوله": 8209,
      "السياحه": 8210,
      "##تكب": 8211,
      "يمديك": 8212,
      "يابني": 8213,
      "طالبه": 8214,
      "اشتراك": 8215,
      "يتش": 8216,
      "##حول": 8217,
      "بقلك": 8218,
      "القراءه": 8219,
      "مرد": 8220,
      "##طله": 8221,
      "لاهل": 8222,
      "طر": 8223,
      "##جمه": 8224,
      "جامعات": 8225,
      "وباقي": 8226,
      "علاقتي": 8227,
      "العاصمه": 8228,
      "وكثير": 8229,
      "##ائريه": 8230,
      "تهديد": 8231,
      "محدوده": 8232,
      "رخيصه": 8233,
      "تحترم": 8234,
      "خلك": 8235,
      "ملكش": 8236,
      "بالواقع": 8237,
      "الحكمه": 8238,
      "نسمع": 8239,
      "زادت": 8240,
      "##يس": 8241,
      "##فصال": 8242,
      "انسانيه": 8243,
      "الرئيسي": 8244,
      "جدعان": 8245,
      "عينه": 8246,
      "##جو": 8247,
      "العرش": 8248,
      "ونحن": 8249,
      "مقرف": 8250,
      "حار": 8251,
      "تؤمن": 8252,
      "شان": 8253,
      "الصدا": 8254,
      "مسيحيه": 8255,
      "رخيص": 8256,
      "سلمان": 8257,
      "خلفيه": 8258,
      "مكمل": 8259,
      "اتفا": 8260,
      "كلمتين": 8261,
      "لهذه": 8262,
      "##طاع": 8263,
      "واجد": 8264,
      "##اجئ": 8265,
      "##ولدت": 8266,
      "يهود": 8267,
      "##وشه": 8268,
      "المخالفات": 8269,
      "بيبقا": 8270,
      "متعب": 8271,
      "وشعب": 8272,
      "##اسيس": 8273,
      "ناض": 8274,
      "بالغلط": 8275,
      "شرطه": 8276,
      "حكوميه": 8277,
      "القسم": 8278,
      "سود": 8279,
      "اغتصاب": 8280,
      "##یر": 8281,
      "فسي": 8282,
      "بيفهم": 8283,
      "التوبه": 8284,
      "السلف": 8285,
      "تراجع": 8286,
      "بديه": 8287,
      "##ضيفه": 8288,
      "الطي": 8289,
      "##ضرار": 8290,
      "الارهابي": 8291,
      "الاولاد": 8292,
      "##هاجرين": 8293,
      "تناقش": 8294,
      "للمسلمين": 8295,
      "يسيب": 8296,
      "الرحمه": 8297,
      "خالي": 8298,
      "##سلت": 8299,
      "مستوا": 8300,
      "ناد": 8301,
      "التكن": 8302,
      "##ئن": 8303,
      "وصلنا": 8304,
      "##ورما": 8305,
      "الصفر": 8306,
      "تبيع": 8307,
      "تهم": 8308,
      "بتمشي": 8309,
      "المشت": 8310,
      "لكني": 8311,
      "عقله": 8312,
      "تتقبل": 8313,
      "انع": 8314,
      "الجل": 8315,
      "##قذ": 8316,
      "##قتين": 8317,
      "عزيز": 8318,
      "سابقا": 8319,
      "الاراء": 8320,
      "وارد": 8321,
      "بطاقه": 8322,
      "هبقي": 8323,
      "المغربي": 8324,
      "##مرار": 8325,
      "ومص": 8326,
      "بحبه": 8327,
      "نرج": 8328,
      "الظاهر": 8329,
      "يهودي": 8330,
      "وايا": 8331,
      "فبي": 8332,
      "خان": 8333,
      "هتقول": 8334,
      "متخرج": 8335,
      "كوني": 8336,
      "الافت": 8337,
      "القص": 8338,
      "الكار": 8339,
      "وكي": 8340,
      "##بهات": 8341,
      "هيئه": 8342,
      "وحب": 8343,
      "بيكلم": 8344,
      "هتست": 8345,
      "ضيق": 8346,
      "##عتش": 8347,
      "##شتغل": 8348,
      "رواه": 8349,
      "تتحكم": 8350,
      "انكر": 8351,
      "يقال": 8352,
      "ويبقي": 8353,
      "النسبه": 8354,
      "مثقف": 8355,
      "البشري": 8356,
      "ورضا": 8357,
      "ملتزم": 8358,
      "##عتهم": 8359,
      "يحل": 8360,
      "الابراهيم": 8361,
      "##رفيا": 8362,
      "معرص": 8363,
      "##انيات": 8364,
      "##غيه": 8365,
      "##يابه": 8366,
      "الكفر": 8367,
      "##شرا": 8368,
      "نصائح": 8369,
      "وايش": 8370,
      "هند": 8371,
      "لهيك": 8372,
      "يبحث": 8373,
      "##خليش": 8374,
      "صحابك": 8375,
      "اقص": 8376,
      "ودول": 8377,
      "خطيب": 8378,
      "##وائد": 8379,
      "##تكرره": 8380,
      "لحم": 8381,
      "اتصرف": 8382,
      "الخطوبه": 8383,
      "واخيرا": 8384,
      "فاع": 8385,
      "تنجح": 8386,
      "الابراهيميه": 8387,
      "لاول": 8388,
      "##شون": 8389,
      "تشتم": 8390,
      "##شيه": 8391,
      "##خط": 8392,
      "تاكد": 8393,
      "طبقه": 8394,
      "الشغله": 8395,
      "وطني": 8396,
      "##يند": 8397,
      "خدمات": 8398,
      "فلازم": 8399,
      "بالميه": 8400,
      "##هوره": 8401,
      "وليش": 8402,
      "##عباد": 8403,
      "عشوائي": 8404,
      "وواحد": 8405,
      "جنا": 8406,
      "سرق": 8407,
      "تخدم": 8408,
      "اضرب": 8409,
      "لر": 8410,
      "طالعه": 8411,
      "محامي": 8412,
      "تصلح": 8413,
      "غضب": 8414,
      "هدي": 8415,
      "اهلهم": 8416,
      "بخاف": 8417,
      "وكلهم": 8418,
      "اتي": 8419,
      "خام": 8420,
      "المعرفه": 8421,
      "بالشارع": 8422,
      "##قني": 8423,
      "الصحيحه": 8424,
      "مدمن": 8425,
      "##ياع": 8426,
      "والدك": 8427,
      "تخليه": 8428,
      "مختص": 8429,
      "##سلي": 8430,
      "##وفيه": 8431,
      "الصفات": 8432,
      "عايزها": 8433,
      "دروس": 8434,
      "وخد": 8435,
      "جامع": 8436,
      "متبقاش": 8437,
      "انجح": 8438,
      "مدار": 8439,
      "تركت": 8440,
      "عرشه": 8441,
      "نقاط": 8442,
      "النيه": 8443,
      "الشاب": 8444,
      "بوجه": 8445,
      "##يص": 8446,
      "مجرب": 8447,
      "عسل": 8448,
      "تجد": 8449,
      "##يتك": 8450,
      "##راتب": 8451,
      "معاكم": 8452,
      "##لر": 8453,
      "الذنوب": 8454,
      "لحي": 8455,
      "مسمي": 8456,
      "لاعب": 8457,
      "تركي": 8458,
      "تجاوز": 8459,
      "مرف": 8460,
      "هتشوف": 8461,
      "##غرا": 8462,
      "##درج": 8463,
      "بتاعها": 8464,
      "السلط": 8465,
      "اسيا": 8466,
      "##شير": 8467,
      "وترا": 8468,
      "زما": 8469,
      "علميا": 8470,
      "شغالين": 8471,
      "مرتبطه": 8472,
      "وصرت": 8473,
      "##غري": 8474,
      "ومداد": 8475,
      "وفا": 8476,
      "خفيفه": 8477,
      "هنت": 8478,
      "باحترام": 8479,
      "يقصد": 8480,
      "حكام": 8481,
      "الموارد": 8482,
      "امسك": 8483,
      "بالنسبالك": 8484,
      "سجن": 8485,
      "مصطلح": 8486,
      "عظيمه": 8487,
      "شكر": 8488,
      "بالبدايه": 8489,
      "الحمل": 8490,
      "يبون": 8491,
      "صوتك": 8492,
      "الهوا": 8493,
      "يجع": 8494,
      "واخت": 8495,
      "الحا": 8496,
      "فالت": 8497,
      "فو": 8498,
      "كسر": 8499,
      "حكوم": 8500,
      "##عوب": 8501,
      "تشغل": 8502,
      "هتتح": 8503,
      "##وريين": 8504,
      "##رياء": 8505,
      "صديقات": 8506,
      "والاسلام": 8507,
      "ثبت": 8508,
      "بقعد": 8509,
      "تكت": 8510,
      "وقله": 8511,
      "##رشح": 8512,
      "فانه": 8513,
      "سياق": 8514,
      "##طيح": 8515,
      "يتحكم": 8516,
      "##عمق": 8517,
      "بالعقل": 8518,
      "عقول": 8519,
      "انتاج": 8520,
      "##عوده": 8521,
      "القلق": 8522,
      "وتعب": 8523,
      "##اسس": 8524,
      "##يتي": 8525,
      "التب": 8526,
      "عمليات": 8527,
      "يلم": 8528,
      "الارقام": 8529,
      "##ضغط": 8530,
      "##بيط": 8531,
      "كندا": 8532,
      "##نتج": 8533,
      "##ايقك": 8534,
      "تذاكر": 8535,
      "امتحانات": 8536,
      "##ائهم": 8537,
      "##وهات": 8538,
      "تفكيري": 8539,
      "للسي": 8540,
      "##ليب": 8541,
      "تقديم": 8542,
      "شريف": 8543,
      "العدد": 8544,
      "ريك": 8545,
      "مستقبلا": 8546,
      "وابدا": 8547,
      "##كتو": 8548,
      "رايحه": 8549,
      "يطول": 8550,
      "الفيلم": 8551,
      "##والف": 8552,
      "##سير": 8553,
      "التركيز": 8554,
      "##برها": 8555,
      "سافرت": 8556,
      "بدرس": 8557,
      "مابت": 8558,
      "بالمره": 8559,
      "مقولتش": 8560,
      "ارفع": 8561,
      "بكي": 8562,
      "القول": 8563,
      "بقوه": 8564,
      "##قلال": 8565,
      "محس": 8566,
      "تحرير": 8567,
      "وخاصه": 8568,
      "امريكيه": 8569,
      "يقوله": 8570,
      "هتفرق": 8571,
      "تتعب": 8572,
      "انتظر": 8573,
      "تقلل": 8574,
      "الجول": 8575,
      "وقته": 8576,
      "يهدينا": 8577,
      "مئات": 8578,
      "الطبيب": 8579,
      "##ضف": 8580,
      "وهذه": 8581,
      "ييجي": 8582,
      "خليني": 8583,
      "شما": 8584,
      "##ناسبك": 8585,
      "خلو": 8586,
      "وكلنا": 8587,
      "واحسن": 8588,
      "مدخل": 8589,
      "##طال": 8590,
      "معتم": 8591,
      "سمعه": 8592,
      "ههههههه": 8593,
      "##اتا": 8594,
      "تطبيقات": 8595,
      "##ندسين": 8596,
      "للمش": 8597,
      "الكذب": 8598,
      "##ياط": 8599,
      "كنتم": 8600,
      "معرفتش": 8601,
      "سوالف": 8602,
      "اتف": 8603,
      "القوميه": 8604,
      "اموال": 8605,
      "مجرم": 8606,
      "حساس": 8607,
      "##حح": 8608,
      "##فاده": 8609,
      "##اطير": 8610,
      "الذكور": 8611,
      "مقتنعه": 8612,
      "يرض": 8613,
      "تعني": 8614,
      "وحط": 8615,
      "تعبير": 8616,
      "اركز": 8617,
      "وتر": 8618,
      "محدده": 8619,
      "ارزق": 8620,
      "وروح": 8621,
      "متقدرش": 8622,
      "استني": 8623,
      "الايفون": 8624,
      "ايجابيه": 8625,
      "ههه": 8626,
      "##طفه": 8627,
      "النك": 8628,
      "##قوه": 8629,
      "تعمله": 8630,
      "بتخلي": 8631,
      "##ﷺﷺﷺﷺ": 8632,
      "زوجي": 8633,
      "فقر": 8634,
      "الرؤ": 8635,
      "الطيبه": 8636,
      "اقتصاديه": 8637,
      "تواجه": 8638,
      "متابعه": 8639,
      "الحقوق": 8640,
      "##ياسه": 8641,
      "لجنه": 8642,
      "اكن": 8643,
      "اضحك": 8644,
      "دكتوره": 8645,
      "استثمار": 8646,
      "الخلاصه": 8647,
      "فاد": 8648,
      "مشابهه": 8649,
      "صديقه": 8650,
      "##عترف": 8651,
      "وحيد": 8652,
      "##نياء": 8653,
      "محجبه": 8654,
      "صرا": 8655,
      "ينام": 8656,
      "الجس": 8657,
      "منتج": 8658,
      "##جج": 8659,
      "##ابا": 8660,
      "بيل": 8661,
      "مزعج": 8662,
      "##بيبه": 8663,
      "##ضيف": 8664,
      "الثانوي": 8665,
      "##وقل": 8666,
      "قولتلك": 8667,
      "كشف": 8668,
      "باني": 8669,
      "الخام": 8670,
      "##حبس": 8671,
      "##لاحين": 8672,
      "رئي": 8673,
      "قصر": 8674,
      "##جزات": 8675,
      "##اقلم": 8676,
      "##ابلات": 8677,
      "##برع": 8678,
      "اللغات": 8679,
      "##تياز": 8680,
      "الاستعمار": 8681,
      "حكومي": 8682,
      "##غلك": 8683,
      "اكله": 8684,
      "الشديد": 8685,
      "هيقولك": 8686,
      "الفلسفه": 8687,
      "حلوين": 8688,
      "والدنيا": 8689,
      "مبسوطه": 8690,
      "يخت": 8691,
      "##اخره": 8692,
      "اليهوديه": 8693,
      "زلمه": 8694,
      "الهرم": 8695,
      "بيدعم": 8696,
      "الاراضي": 8697,
      "متخصص": 8698,
      "جذ": 8699,
      "اعترف": 8700,
      "شار": 8701,
      "كفار": 8702,
      "تعلق": 8703,
      "والمفروض": 8704,
      "بالدنيا": 8705,
      "اتقبل": 8706,
      "تدي": 8707,
      "ظالم": 8708,
      "مجب": 8709,
      "الارتباط": 8710,
      "مبادئ": 8711,
      "الرغبه": 8712,
      "العالمي": 8713,
      "اخش": 8714,
      "صحتك": 8715,
      "مطلع": 8716,
      "غري": 8717,
      "مابين": 8718,
      "##طبيعي": 8719,
      "خايفين": 8720,
      "الذه": 8721,
      "##ويله": 8722,
      "ميزان": 8723,
      "والز": 8724,
      "اعرفها": 8725,
      "##صدفه": 8726,
      "مفهم": 8727,
      "##غطي": 8728,
      "##الو": 8729,
      "اسيب": 8730,
      "الاردنيه": 8731,
      "يشيل": 8732,
      "اوقف": 8733,
      "اتعرض": 8734,
      "ملابس": 8735,
      "##وجهه": 8736,
      "هالشيء": 8737,
      "##احبي": 8738,
      "يضيع": 8739,
      "##روم": 8740,
      "متقبل": 8741,
      "##ظات": 8742,
      "##ذكور": 8743,
      "##راقيه": 8744,
      "نشاط": 8745,
      "ضحكت": 8746,
      "المختلفه": 8747,
      "تحقق": 8748,
      "عالميه": 8749,
      "لاجل": 8750,
      "روعه": 8751,
      "المتدين": 8752,
      "الادله": 8753,
      "بقل": 8754,
      "##لافات": 8755,
      "##زت": 8756,
      "##باه": 8757,
      "تعلمت": 8758,
      "اقطع": 8759,
      "##وتنا": 8760,
      "ارهاب": 8761,
      "##الد": 8762,
      "هوما": 8763,
      "##صم": 8764,
      "وكر": 8765,
      "يطبق": 8766,
      "##راضي": 8767,
      "يحي": 8768,
      "كاره": 8769,
      "يحبون": 8770,
      "مجنون": 8771,
      "النها": 8772,
      "تصوير": 8773,
      "سرعه": 8774,
      "يمت": 8775,
      "كلماته": 8776,
      "##جازه": 8777,
      "متفقين": 8778,
      "ينس": 8779,
      "اللهجه": 8780,
      "تشرب": 8781,
      "##شيات": 8782,
      "سحر": 8783,
      "حاضر": 8784,
      "بينزل": 8785,
      "مخل": 8786,
      "اجهزه": 8787,
      "##بيك": 8788,
      "مسلسلات": 8789,
      "يتكلمون": 8790,
      "تزوجت": 8791,
      "البرمجه": 8792,
      "يسهل": 8793,
      "جزيلا": 8794,
      "شاذ": 8795,
      "عدت": 8796,
      "ينظر": 8797,
      "منظمه": 8798,
      "##واضيع": 8799,
      "واهل": 8800,
      "ينصح": 8801,
      "يجيني": 8802,
      "##حكم": 8803,
      "##باعه": 8804,
      "مؤمنين": 8805,
      "ههههههههههههه": 8806,
      "مطلقه": 8807,
      "اضعف": 8808,
      "##صوره": 8809,
      "يفيدني": 8810,
      "ارهابيه": 8811,
      "الرائ": 8812,
      "بطبي": 8813,
      "مدني": 8814,
      "##كز": 8815,
      "##درين": 8816,
      "الوحش": 8817,
      "الملاح": 8818,
      "##حسن": 8819,
      "##ويم": 8820,
      "الجزاء": 8821,
      "##يتها": 8822,
      "##كلهم": 8823,
      "المدنيين": 8824,
      "##رن": 8825,
      "الحجه": 8826,
      "اصول": 8827,
      "##اضرات": 8828,
      "اتخرج": 8829,
      "##ذاء": 8830,
      "قولتله": 8831,
      "ينصر": 8832,
      "يتحمل": 8833,
      "التوتر": 8834,
      "فعلي": 8835,
      "##لاع": 8836,
      "انقل": 8837,
      "السيطره": 8838,
      "وطبي": 8839,
      "##ايما": 8840,
      "بيستخدم": 8841,
      "شتيمه": 8842,
      "سبق": 8843,
      "ودك": 8844,
      "##ابرات": 8845,
      "الخض": 8846,
      "الواضح": 8847,
      "مطاعم": 8848,
      "##داول": 8849,
      "##خصصه": 8850,
      "بلك": 8851,
      "اتصل": 8852,
      "يصدق": 8853,
      "ايجار": 8854,
      "وهيك": 8855,
      "الجزيه": 8856,
      "تتش": 8857,
      "رحيم": 8858,
      "##نفس": 8859,
      "الشرف": 8860,
      "اصحابي": 8861,
      "اعدادي": 8862,
      "خول": 8863,
      "تمثل": 8864,
      "مافهم": 8865,
      "الزوجيه": 8866,
      "الحسين": 8867,
      "انتح": 8868,
      "السريع": 8869,
      "زهقت": 8870,
      "صاروا": 8871,
      "البيوت": 8872,
      "##فيل": 8873,
      "الفن": 8874,
      "يبقوا": 8875,
      "قلنا": 8876,
      "##اليين": 8877,
      "##ايله": 8878,
      "ومنها": 8879,
      "متق": 8880,
      "يبت": 8881,
      "القت": 8882,
      "##افره": 8883,
      "بحر": 8884,
      "خسرت": 8885,
      "##نمر": 8886,
      "اسمو": 8887,
      "تكوين": 8888,
      "##عيب": 8889,
      "وابن": 8890,
      "الصيد": 8891,
      "والاع": 8892,
      "يتصرف": 8893,
      "##غطيه": 8894,
      "لاء": 8895,
      "##صال": 8896,
      "##اجل": 8897,
      "بنزل": 8898,
      "كانهم": 8899,
      "مخط": 8900,
      "للكل": 8901,
      "جمعه": 8902,
      "بالقران": 8903,
      "يستطيع": 8904,
      "الوالدين": 8905,
      "وامريكا": 8906,
      "المسلسلات": 8907,
      "برمجه": 8908,
      "حاطه": 8909,
      "يضر": 8910,
      "ومصر": 8911,
      "##جنن": 8912,
      "وتد": 8913,
      "ارجوك": 8914,
      "تبرير": 8915,
      "##ينيين": 8916,
      "هك": 8917,
      "##مح": 8918,
      "يصلي": 8919,
      "التزام": 8920,
      "##رامات": 8921,
      "عجبني": 8922,
      "طبق": 8923,
      "بقاله": 8924,
      "نسبيا": 8925,
      "سطحي": 8926,
      "النادي": 8927,
      "ميبقاش": 8928,
      "رهي": 8929,
      "راضيه": 8930,
      "##تون": 8931,
      "##قافي": 8932,
      "مقلب": 8933,
      "ناقش": 8934,
      "المسلسل": 8935,
      "سمعتها": 8936,
      "خدي": 8937,
      "نجحت": 8938,
      "بعدم": 8939,
      "المشاه": 8940,
      "ملت": 8941,
      "يث": 8942,
      "مثله": 8943,
      "المغاربه": 8944,
      "بكثره": 8945,
      "العث": 8946,
      "##ائيات": 8947,
      "اشغل": 8948,
      "وسخ": 8949,
      "تالت": 8950,
      "لاك": 8951,
      "باز": 8952,
      "ورو": 8953,
      "وهاد": 8954,
      "##ريل": 8955,
      "اوكي": 8956,
      "مباشرا": 8957,
      "سايب": 8958,
      "يقنع": 8959,
      "##یک": 8960,
      "موعد": 8961,
      "دوب": 8962,
      "اقوم": 8963,
      "ضر": 8964,
      "##ضمام": 8965,
      "تحذيرا": 8966,
      "##اذي": 8967,
      "عشانها": 8968,
      "فاتح": 8969,
      "السحر": 8970,
      "هلق": 8971,
      "وجاي": 8972,
      "بتنزل": 8973,
      "الاجيال": 8974,
      "##واقف": 8975,
      "##ويين": 8976,
      "قمت": 8977,
      "كرت": 8978,
      "اصحي": 8979,
      "داير": 8980,
      "ويخ": 8981,
      "الخروج": 8982,
      "الدوا": 8983,
      "علامات": 8984,
      "صحبي": 8985,
      "بيان": 8986,
      "حالنا": 8987,
      "مرور": 8988,
      "ضحيه": 8989,
      "##قيمه": 8990,
      "متاح": 8991,
      "واشتغل": 8992,
      "بايه": 8993,
      "##قطاع": 8994,
      "بتحبها": 8995,
      "التض": 8996,
      "تقولها": 8997,
      "يسرق": 8998,
      "افتراض": 8999,
      "##وند": 9000,
      "##برت": 9001,
      "مخد": 9002,
      "مرك": 9003,
      "للاخ": 9004,
      "الفرنسي": 9005,
      "اعمله": 9006,
      "فالع": 9007,
      "ردت": 9008,
      "##ييير": 9009,
      "سعرها": 9010,
      "توضح": 9011,
      "الرفض": 9012,
      "##عينات": 9013,
      "تعديل": 9014,
      "مبار": 9015,
      "النسويه": 9016,
      "مسيحيين": 9017,
      "موسيقي": 9018,
      "الجوده": 9019,
      "يحق": 9020,
      "لغات": 9021,
      "مشابه": 9022,
      "جين": 9023,
      "الخار": 9024,
      "##جيك": 9025,
      "جنت": 9026,
      "سلوك": 9027,
      "##ضطر": 9028,
      "وافضل": 9029,
      "حيوانات": 9030,
      "المساعده": 9031,
      "المثليين": 9032,
      "##لوهم": 9033,
      "القضاء": 9034,
      "الظالمين": 9035,
      "فنفس": 9036,
      "قوات": 9037,
      "##بتهم": 9038,
      "وته": 9039,
      "مشاركتك": 9040,
      "اراضي": 9041,
      "بالمشرفين": 9042,
      "استثناء": 9043,
      "##جذب": 9044,
      "الطيبين": 9045,
      "يسمي": 9046,
      "##ياطين": 9047,
      "شاهد": 9048,
      "الحيوان": 9049,
      "##المه": 9050,
      "والمؤمن": 9051,
      "ناحي": 9052,
      "ذكرتها": 9053,
      "اياها": 9054,
      "بلادنا": 9055,
      "يعا": 9056,
      "والمت": 9057,
      "الكه": 9058,
      "النه": 9059,
      "النش": 9060,
      "بودكاست": 9061,
      "##طو": 9062,
      "##جيبه": 9063,
      "كيان": 9064,
      "##كاه": 9065,
      "طبيه": 9066,
      "المنهج": 9067,
      "تطل": 9068,
      "والار": 9069,
      "تولي": 9070,
      "##ازر": 9071,
      "الظهر": 9072,
      "دارس": 9073,
      "لابد": 9074,
      "التونسي": 9075,
      "تعري": 9076,
      "اصله": 9077,
      "تشرح": 9078,
      "##وادث": 9079,
      "اعاني": 9080,
      "حقا": 9081,
      "##غلها": 9082,
      "سبا": 9083,
      "كرامه": 9084,
      "##عيات": 9085,
      "متست": 9086,
      "بعضه": 9087,
      "معاناه": 9088,
      "زود": 9089,
      "اجب": 9090,
      "بيدخل": 9091,
      "تتاكد": 9092,
      "##حاب": 9093,
      "##عوها": 9094,
      "الحديثه": 9095,
      "الفاس": 9096,
      "القدر": 9097,
      "واحترام": 9098,
      "الشخصيات": 9099,
      "مدن": 9100,
      "المنتجات": 9101,
      "ودين": 9102,
      "وحق": 9103,
      "خويا": 9104,
      "##ليزي": 9105,
      "الذنب": 9106,
      "##ظروف": 9107,
      "فاكرين": 9108,
      "رابعه": 9109,
      "احمر": 9110,
      "وعليكم": 9111,
      "مدا": 9112,
      "فاهمني": 9113,
      "يتب": 9114,
      "برم": 9115,
      "لوجه": 9116,
      "العدم": 9117,
      "بيقدر": 9118,
      "##قدري": 9119,
      "طرد": 9120,
      "نجد": 9121,
      "بتعامل": 9122,
      "مكون": 9123,
      "سقط": 9124,
      "فقدت": 9125,
      "##خيله": 9126,
      "الناصر": 9127,
      "##دقاء": 9128,
      "ماضي": 9129,
      "فحي": 9130,
      "صدر": 9131,
      "بعديها": 9132,
      "ملحده": 9133,
      "الهجوم": 9134,
      "للمجتمع": 9135,
      "بصوره": 9136,
      "مازال": 9137,
      "تهاجم": 9138,
      "صوته": 9139,
      "كوب": 9140,
      "##منا": 9141,
      "يبرر": 9142,
      "احتماليه": 9143,
      "افتك": 9144,
      "اعداد": 9145,
      "وراك": 9146,
      "خري": 9147,
      "العقيده": 9148,
      "امازون": 9149,
      "فممكن": 9150,
      "ولكم": 9151,
      "حسنه": 9152,
      "##قض": 9153,
      "لاين": 9154,
      "النز": 9155,
      "الوالده": 9156,
      "مشوف": 9157,
      "اساعد": 9158,
      "تلاقيه": 9159,
      "معندهاش": 9160,
      "اعداء": 9161,
      "الحمدالله": 9162,
      "خوي": 9163,
      "بنتي": 9164,
      "##روا": 9165,
      "جيدا": 9166,
      "بتدخل": 9167,
      "##بيله": 9168,
      "وحاليا": 9169,
      "باخر": 9170,
      "صدمه": 9171,
      "اقتراحات": 9172,
      "للطب": 9173,
      "##قاله": 9174,
      "ارائ": 9175,
      "اخته": 9176,
      "تقرب": 9177,
      "حكايه": 9178,
      "وادي": 9179,
      "الكن": 9180,
      "##ديقه": 9181,
      "صنا": 9182,
      "تلات": 9183,
      "مهاره": 9184,
      "##وظيف": 9185,
      "يعبر": 9186,
      "وتبقي": 9187,
      "الطفوله": 9188,
      "مفر": 9189,
      "##ائم": 9190,
      "اهبل": 9191,
      "ينتقد": 9192,
      "جهد": 9193,
      "##جله": 9194,
      "هاج": 9195,
      "##نود": 9196,
      "##درون": 9197,
      "بمح": 9198,
      "للمع": 9199,
      "شاشه": 9200,
      "الاجهزه": 9201,
      "معظمهم": 9202,
      "اشتريت": 9203,
      "زال": 9204,
      "الخبره": 9205,
      "الغي": 9206,
      "##قشه": 9207,
      "بتاعتي": 9208,
      "الجوع": 9209,
      "بليل": 9210,
      "ليت": 9211,
      "وعل": 9212,
      "حذ": 9213,
      "الطالب": 9214,
      "فالس": 9215,
      "اسويه": 9216,
      "معارض": 9217,
      "##طنه": 9218,
      "الدعوه": 9219,
      "جاوب": 9220,
      "النفط": 9221,
      "##قار": 9222,
      "تبرر": 9223,
      "وطلعت": 9224,
      "البنوك": 9225,
      "وفهم": 9226,
      "مقاومه": 9227,
      "##ساط": 9228,
      "دينيا": 9229,
      "العبيد": 9230,
      "بمز": 9231,
      "زوجتك": 9232,
      "تطبق": 9233,
      "خطوات": 9234,
      "والتي": 9235,
      "مذاكره": 9236,
      "ماخ": 9237,
      "حمد": 9238,
      "الاعراض": 9239,
      "القواعد": 9240,
      "دبي": 9241,
      "اسلوبك": 9242,
      "العلو": 9243,
      "العالي": 9244,
      "بنته": 9245,
      "ترجمه": 9246,
      "شرا": 9247,
      "##بعد": 9248,
      "النصر": 9249,
      "الشذوذ": 9250,
      "مكانتش": 9251,
      "##طباع": 9252,
      "الاجر": 9253,
      "واقفه": 9254,
      "يسافر": 9255,
      "##طبيق": 9256,
      "انتر": 9257,
      "الاستثمار": 9258,
      "##لمان": 9259,
      "ومعا": 9260,
      "القوم": 9261,
      "نسوي": 9262,
      "##كانيه": 9263,
      "##وتها": 9264,
      "هالكلام": 9265,
      "باطل": 9266,
      "الاغتصاب": 9267,
      "هبد": 9268,
      "ازد": 9269,
      "بيموت": 9270,
      "اخترت": 9271,
      "المفترض": 9272,
      "القبول": 9273,
      "##فيس": 9274,
      "البعد": 9275,
      "بمصر": 9276,
      "المحلات": 9277,
      "ممارسه": 9278,
      "نفع": 9279,
      "##زاك": 9280,
      "مود": 9281,
      "دراستي": 9282,
      "معناته": 9283,
      "ويوف": 9284,
      "الحسن": 9285,
      "الشرعي": 9286,
      "بتاعتهم": 9287,
      "مخدرات": 9288,
      "دماغهم": 9289,
      "الاكونت": 9290,
      "هتلاقيه": 9291,
      "هزار": 9292,
      "رهيبه": 9293,
      "منتخب": 9294,
      "الاحمر": 9295,
      "مكاف": 9296,
      "متضايق": 9297,
      "قار": 9298,
      "الاستاذ": 9299,
      "وسائل": 9300,
      "بدافع": 9301,
      "ميعرفش": 9302,
      "وفل": 9303,
      "ترتاح": 9304,
      "الدخول": 9305,
      "اهدا": 9306,
      "##اهله": 9307,
      "##صحابه": 9308,
      "استمتع": 9309,
      "المتحرش": 9310,
      "اخوكم": 9311,
      "##صفه": 9312,
      "استغلال": 9313,
      "واقعيه": 9314,
      "##رده": 9315,
      "##صالح": 9316,
      "مسجد": 9317,
      "بتاعنا": 9318,
      "التصوير": 9319,
      "تلقائي": 9320,
      "بيدفع": 9321,
      "العرض": 9322,
      "معجزه": 9323,
      "بتعلم": 9324,
      "طفول": 9325,
      "النو": 9326,
      "القيمه": 9327,
      "خلقنا": 9328,
      "واكتر": 9329,
      "##صلها": 9330,
      "شفنا": 9331,
      "قنوات": 9332,
      "##لقه": 9333,
      "يقرب": 9334,
      "وبنات": 9335,
      "ميزه": 9336,
      "بالخير": 9337,
      "##خريه": 9338,
      "##ابين": 9339,
      "دراستك": 9340,
      "تقف": 9341,
      "##ريديت": 9342,
      "##سكورد": 9343,
      "واعتقد": 9344,
      "المواطنين": 9345,
      "شرع": 9346,
      "ضده": 9347,
      "وعدد": 9348,
      "واحب": 9349,
      "المحافظ": 9350,
      "ملهمش": 9351,
      "فكيف": 9352,
      "استعمل": 9353,
      "سامح": 9354,
      "عقيده": 9355,
      "وضح": 9356,
      "الاسلاميين": 9357,
      "ماكنت": 9358,
      "يحمل": 9359,
      "##قان": 9360,
      "معيش": 9361,
      "##ورهم": 9362,
      "قابلت": 9363,
      "##صلك": 9364,
      "##رتب": 9365,
      "الجمهوريه": 9366,
      "المبا": 9367,
      "والمسلم": 9368,
      "والحياه": 9369,
      "فاهمك": 9370,
      "مسئ": 9371,
      "سرقه": 9372,
      "الاوقات": 9373,
      "##قتنع": 9374,
      "مستحي": 9375,
      "قريبا": 9376,
      "##ؤون": 9377,
      "##قدين": 9378,
      "بيبقوا": 9379,
      "مقابله": 9380,
      "تمارين": 9381,
      "وضحت": 9382,
      "التعميم": 9383,
      "صداقه": 9384,
      "مغالطه": 9385,
      "##شرات": 9386,
      "قريش": 9387,
      "تحفه": 9388,
      "العباد": 9389,
      "وشه": 9390,
      "##رون": 9391,
      "ويغفر": 9392,
      "البطاقه": 9393,
      "وزن": 9394,
      "دهب": 9395,
      "##شرين": 9396,
      "##ساعدات": 9397,
      "عوامل": 9398,
      "##بيح": 9399,
      "##اسم": 9400,
      "ومكان": 9401,
      "الالكترونيه": 9402,
      "الاخلاقيه": 9403,
      "##لوقتي": 9404,
      "##راوي": 9405,
      "حقت": 9406,
      "##راحل": 9407,
      "يشاء": 9408,
      "بهيك": 9409,
      "المثل": 9410,
      "حيكون": 9411,
      "صالحه": 9412,
      "التمر": 9413,
      "القادمه": 9414,
      "تنجم": 9415,
      "ضا": 9416,
      "وتروح": 9417,
      "بالزواج": 9418,
      "بالبلد": 9419,
      "القلوب": 9420,
      "##ذاهب": 9421,
      "عبط": 9422,
      "وذلك": 9423,
      "مراتك": 9424,
      "واليوم": 9425,
      "بيعملو": 9426,
      "كع": 9427,
      "كوره": 9428,
      "##زاق": 9429,
      "ماتعرف": 9430,
      "يريح": 9431,
      "الوصول": 9432,
      "مجاني": 9433,
      "بتدفع": 9434,
      "استعداد": 9435,
      "وسم": 9436,
      "تكلمت": 9437,
      "##فظه": 9438,
      "المساله": 9439,
      "ملام": 9440,
      "للدوله": 9441,
      "تركيز": 9442,
      "ودايما": 9443,
      "طلعوا": 9444,
      "الممكن": 9445,
      "فلسفه": 9446,
      "وبالم": 9447,
      "##تكلمش": 9448,
      "هيتح": 9449,
      "سابق": 9450,
      "##راز": 9451,
      "صهيوني": 9452,
      "واكل": 9453,
      "قلتها": 9454,
      "وحرفيا": 9455,
      "##جاره": 9456,
      "خارجيه": 9457,
      "برحم": 9458,
      "يخرب": 9459,
      "تقدرين": 9460,
      "هيقدر": 9461,
      "##قتلوا": 9462,
      "يناير": 9463,
      "خيارات": 9464,
      "يزم": 9465,
      "##لاما": 9466,
      "والاخره": 9467,
      "اعتراض": 9468,
      "السياق": 9469,
      "باسلوب": 9470,
      "اقترح": 9471,
      "مقنع": 9472,
      "حث": 9473,
      "اوض": 9474,
      "##لكم": 9475,
      "يمن": 9476,
      "الاشتراك": 9477,
      "سمعته": 9478,
      "##حمين": 9479,
      "تعصب": 9480,
      "الدوليه": 9481,
      "ناخد": 9482,
      "الانثي": 9483,
      "##قيع": 9484,
      "اطلاقا": 9485,
      "الفهم": 9486,
      "##وضاع": 9487,
      "هيست": 9488,
      "وقاعد": 9489,
      "الجنسين": 9490,
      "فمصر": 9491,
      "##فيني": 9492,
      "توز": 9493,
      "وترجع": 9494,
      "##اكين": 9495,
      "وجميع": 9496,
      "خلاصه": 9497,
      "رض": 9498,
      "ابواب": 9499,
      "التخلف": 9500,
      "اليها": 9501,
      "لاش": 9502,
      "ايط": 9503,
      "الرده": 9504,
      "تشوفها": 9505,
      "بلدهم": 9506,
      "##زان": 9507,
      "لموضوع": 9508,
      "فضي": 9509,
      "الموظفين": 9510,
      "المشاريع": 9511,
      "خالتي": 9512,
      "الامير": 9513,
      "نتائج": 9514,
      "##ذكاء": 9515,
      "والشي": 9516,
      "شده": 9517,
      "##فلسف": 9518,
      "امتياز": 9519,
      "النم": 9520,
      "##لار": 9521,
      "الردود": 9522,
      "دفعه": 9523,
      "##عدوا": 9524,
      "قصاد": 9525,
      "واسرائيل": 9526,
      "يقلك": 9527,
      "هكون": 9528,
      "##بون": 9529,
      "بكلمه": 9530,
      "حسبنا": 9531,
      "##ؤه": 9532,
      "##اتو": 9533,
      "العمله": 9534,
      "##وتش": 9535,
      "محصلش": 9536,
      "جر": 9537,
      "فورا": 9538,
      "تبا": 9539,
      "هيفرق": 9540,
      "بنحب": 9541,
      "اوك": 9542,
      "الضعي": 9543,
      "##وروبا": 9544,
      "بالزبط": 9545,
      "ارضي": 9546,
      "احياء": 9547,
      "هتروح": 9548,
      "الاعلان": 9549,
      "تصل": 9550,
      "لحالها": 9551,
      "هههههههه": 9552,
      "نحاول": 9553,
      "الديانات": 9554,
      "فعله": 9555,
      "تور": 9556,
      "الخمس": 9557,
      "الانف": 9558,
      "##ياف": 9559,
      "المغربيه": 9560,
      "امني": 9561,
      "##دوفي": 9562,
      "وكون": 9563,
      "بتفرق": 9564,
      "مضايق": 9565,
      "العقاب": 9566,
      "نفسو": 9567,
      "الجريمه": 9568,
      "شيف": 9569,
      "التجاره": 9570,
      "مها": 9571,
      "مياه": 9572,
      "انتخابات": 9573,
      "##طش": 9574,
      "بينها": 9575,
      "وصفه": 9576,
      "##زني": 9577,
      "وتصير": 9578,
      "ويص": 9579,
      "وجي": 9580,
      "وبالت": 9581,
      "يكونون": 9582,
      "روم": 9583,
      "المشكل": 9584,
      "تجيني": 9585,
      "الزي": 9586,
      "السرقه": 9587,
      "منظر": 9588,
      "الصنا": 9589,
      "عافيه": 9590,
      "##عافي": 9591,
      "انشالله": 9592,
      "قاتل": 9593,
      "عباس": 9594,
      "خاطئ": 9595,
      "الفرص": 9596,
      "دقيق": 9597,
      "اللون": 9598,
      "##اتج": 9599,
      "##بله": 9600,
      "اداه": 9601,
      "وشفت": 9602,
      "نمشي": 9603,
      "المجالات": 9604,
      "العيشه": 9605,
      "للبنت": 9606,
      "##سسني": 9607,
      "وحاجات": 9608,
      "تذ": 9609,
      "بالاخر": 9610,
      "ارتاح": 9611,
      "السلم": 9612,
      "سبت": 9613,
      "الحزب": 9614,
      "حف": 9615,
      "عماله": 9616,
      "تستمر": 9617,
      "ويد": 9618,
      "##سنين": 9619,
      "بغيت": 9620,
      "بتكره": 9621,
      "مضحك": 9622,
      "يجبر": 9623,
      "مضمون": 9624,
      "عاجبني": 9625,
      "يحرم": 9626,
      "تفرض": 9627,
      "بالصدفه": 9628,
      "ابطل": 9629,
      "الرسمي": 9630,
      "قايمه": 9631,
      "الوزن": 9632,
      "الرسميه": 9633,
      "##ابعين": 9634,
      "عشوائيه": 9635,
      "فدا": 9636,
      "محور": 9637,
      "اصبر": 9638,
      "تحارب": 9639,
      "بيدور": 9640,
      "انتقد": 9641,
      "تخسر": 9642,
      "شعبيه": 9643,
      "ينجح": 9644,
      "مظنش": 9645,
      "##ضله": 9646,
      "اظ": 9647,
      "##عش": 9648,
      "وطريقه": 9649,
      "رفي": 9650,
      "مظلوم": 9651,
      "##جاعه": 9652,
      "فشلت": 9653,
      "الحزن": 9654,
      "هيثم": 9655,
      "##ااااا": 9656,
      "عشرات": 9657,
      "وعندهم": 9658,
      "بذلك": 9659,
      "راني": 9660,
      "احل": 9661,
      "باول": 9662,
      "معملتش": 9663,
      "كومي": 9664,
      "ماا": 9665,
      "كو": 9666,
      "بذات": 9667,
      "والشعب": 9668,
      "شديده": 9669,
      "استقرار": 9670,
      "مخرج": 9671,
      "جزاكم": 9672,
      "مضي": 9673,
      "البلدان": 9674,
      "كارثه": 9675,
      "قاطع": 9676,
      "الفديو": 9677,
      "والمس": 9678,
      "الخيار": 9679,
      "هتح": 9680,
      "خروج": 9681,
      "الجهاد": 9682,
      "للدرجه": 9683,
      "الاهلي": 9684,
      "السط": 9685,
      "##كتاتوريه": 9686,
      "بحسب": 9687,
      "الراحمين": 9688,
      "الملي": 9689,
      "العا": 9690,
      "العفو": 9691,
      "منهج": 9692,
      "بالعاده": 9693,
      "##كرانيا": 9694,
      "تتصرف": 9695,
      "##اااااااااااااااا": 9696,
      "تقليل": 9697,
      "وجعل": 9698,
      "هدفك": 9699,
      "تتر": 9700,
      "##لاي": 9701,
      "اتقدم": 9702,
      "مثالي": 9703,
      "التخصصات": 9704,
      "المتط": 9705,
      "تعرفه": 9706,
      "مجالات": 9707,
      "تضل": 9708,
      "##اهيم": 9709,
      "المدير": 9710,
      "بهدف": 9711,
      "##ارا": 9712,
      "اقلك": 9713,
      "المهمه": 9714,
      "عثمان": 9715,
      "لوا": 9716,
      "##اكمه": 9717,
      "والسنه": 9718,
      "ذاتها": 9719,
      "وبل": 9720,
      "##ارقه": 9721,
      "واصل": 9722,
      "وليست": 9723,
      "اسكت": 9724,
      "ابكي": 9725,
      "عننا": 9726,
      "المقابل": 9727,
      "مفتوحه": 9728,
      "كرام": 9729,
      "##ابق": 9730,
      "##زير": 9731,
      "تصميم": 9732,
      "الحلول": 9733,
      "متعلق": 9734,
      "المنظ": 9735,
      "ذره": 9736,
      "##اور": 9737,
      "مستر": 9738,
      "امثالك": 9739,
      "هام": 9740,
      "ميكونش": 9741,
      "مجتمعات": 9742,
      "ترند": 9743,
      "بيسال": 9744,
      "الطول": 9745,
      "مزع": 9746,
      "تحديد": 9747,
      "تشبه": 9748,
      "لقيتها": 9749,
      "غرب": 9750,
      "الهندسه": 9751,
      "الاقصي": 9752,
      "الخميس": 9753,
      "##ئس": 9754,
      "##عادي": 9755,
      "قلتي": 9756,
      "النسوان": 9757,
      "شعبها": 9758,
      "بتدعم": 9759,
      "##بز": 9760,
      "الفرنسيه": 9761,
      "ينتهي": 9762,
      "الاخطاء": 9763,
      "يخلق": 9764,
      "المركز": 9765,
      "التزم": 9766,
      "خيانه": 9767,
      "##هدف": 9768,
      "##موا": 9769,
      "##وفوبيا": 9770,
      "يفرض": 9771,
      "وكت": 9772,
      "تعتقد": 9773,
      "اوف": 9774,
      "مطب": 9775,
      "##قري": 9776,
      "نضيف": 9777,
      "الاجازه": 9778,
      "##ستم": 9779,
      "وماي": 9780,
      "اها": 9781,
      "کن": 9782,
      "دائره": 9783,
      "مسافر": 9784,
      "##جنه": 9785,
      "المسلمه": 9786,
      "يغلط": 9787,
      "معتمد": 9788,
      "للنقاش": 9789,
      "مصلح": 9790,
      "متخلفه": 9791,
      "بالمستقبل": 9792,
      "ارهابيين": 9793,
      "تقد": 9794,
[...]
